000000
000000
000000
000000
000000
000000
000000
000000
000000
000000
000000
000000
000000
000000
000000
000000
000000
000000
000000
000000
000000
000000
000000
000000
000000
000000
000000
000000
000000
000000
000000
000000
000000
000000
000000
000000
000000
000000
fffff0
000000
000000
000000
000000
000000
000000
000000
000000
000000
000000
000000
000000
000000
000000
000000
fffff0
fffff0
fffff0
fffff0
fffff0
fffff0
fffff0
fffff0
fffff0
fffff0
fffff0
fffff0
fffff0
fffff0
fffff0
fffff0
fffff0
fffff0
fffff0
002447
000aa7
000000
000000
000000
000000
000000
000000
000000
000000
000000
000000
000000
000000
000000
000000
002447
002447
002447
002447
002447
002447
002447
002447
002447
002447
002447
002447
002447
002447
002447
002447
002447
002447
002447
ffc934
005496
0015ac
000000
000000
000000
000000
000000
000000
000000
000000
000000
000000
000000
000000
000000
ffc934
ffc934
ffc934
ffc934
ffc934
ffc934
ffc934
ffc934
ffc934
ffc934
ffc934
ffc934
ffc934
ffc934
ffc934
ffc934
ffc934
ffc934
ffc934
fffdc2
ffcadf
008579
0020c6
000000
000000
000000
000000
000000
000000
000000
000000
000000
000000
000000
000000
fffdc2
fffdc2
fffdc2
fffdc2
fffdc2
fffdc2
fffdc2
fffdc2
fffdc2
fffdc2
fffdc2
fffdc2
fffdc2
fffdc2
fffdc2
fffdc2
fffdc2
fffdc2
fffdc2
001476
000847
ffe48f
00a368
00264b
000000
000000
000000
000000
000000
000000
000000
000000
000000
000000
000000
001476
001476
001476
001476
001476
001476
001476
001476
001476
001476
001476
001476
001476
001476
001476
001476
001476
001476
001476
ffb948
001e7f
0020a9
0005e8
00a627
00257b
000000
000000
000000
000000
000000
000000
000000
000000
000000
000000
ffb948
ffb948
ffb948
ffb948
ffb948
ffb948
ffb948
ffb948
ffb948
ffb948
ffb948
ffb948
ffb948
ffb948
ffb948
ffb948
ffb948
ffb948
ffb948
ff9272
ffa960
003d34
00531c
ffdbd8
00c9b7
003025
000000
000000
000000
000000
000000
000000
000000
000000
000000
ff9272
ff9272
ff9272
ff9272
ff9272
ff9272
ff9272
ff9272
ff9272
ff9272
ff9272
ff9272
ff9272
ff9272
ff9272
ff9272
ff9272
ff9272
ff9272
ffc0b5
ff6ecf
ff8c92
007e28
005047
ff989c
0127d6
00489c
000000
000000
000000
000000
000000
000000
000000
000000
ffc0b5
ffc0b5
ffc0b5
ffc0b5
ffc0b5
ffc0b5
ffc0b5
ffc0b5
ffc0b5
ffc0b5
ffc0b5
ffc0b5
ffc0b5
ffc0b5
ffc0b5
ffc0b5
ffc0b5
ffc0b5
ffc0b5
01a846
ff9d7a
ff517d
ffcbf8
007bb4
000e11
fff40c
01427a
00493f
000000
000000
000000
000000
000000
000000
000000
01a846
01a846
01a846
01a846
01a846
01a846
01a846
01a846
01a846
01a846
01a846
01a846
01a846
01a846
01a846
01a846
01a846
01a846
01a846
025701
007f3f
ff6719
ffb09c
002931
00222d
002a70
00b3f4
00bcf3
0021eb
000000
000000
000000
000000
000000
000000
025701
025701
025701
025701
025701
025701
025701
025701
025701
025701
025701
025701
025701
025701
025701
025701
025701
025701
025701
021da3
00f4ec
ffff26
ffbf2a
0016c4
ffea9b
0037fb
00d895
005cf6
006fd7
0016d7
000000
000000
000000
000000
000000
021da3
021da3
021da3
021da3
021da3
021da3
021da3
021da3
021da3
021da3
021da3
021da3
021da3
021da3
021da3
021da3
021da3
021da3
021da3
025cdf
00d8cb
0038da
0009b9
001de7
ffe192
001cbb
00df39
006eec
0040c5
003d0c
000b33
000000
000000
000000
000000
025cdf
025cdf
025cdf
025cdf
025cdf
025cdf
025cdf
025cdf
025cdf
025cdf
025cdf
025cdf
025cdf
025cdf
025cdf
025cdf
025cdf
025cdf
025cdf
0245aa
0077b3
00640a
ffb11f
ffab6c
ffd69c
002a9a
01090f
0064b9
002530
008550
ffd087
ffeecd
000000
000000
000000
0245aa
0245aa
0245aa
0245aa
0245aa
0245aa
0245aa
0245aa
0245aa
0245aa
0245aa
0245aa
0245aa
0245aa
0245aa
0245aa
0245aa
0245aa
0245aa
024b62
0035f4
ff50f6
002b7a
feb069
fe9247
000b8e
01305b
00db40
00084c
00372d
009d44
ff4895
ffcf46
000000
000000
024b62
024b62
024b62
024b62
024b62
024b62
024b62
024b62
024b62
024b62
024b62
024b62
024b62
024b62
024b62
024b62
024b62
024b62
024b62
02399e
003785
ff3eef
ffe00d
fed1f5
fe4d74
ffb2a0
0127d7
00e606
0028cb
002f41
0087d7
ff80b8
ffa1b2
fff2a3
000000
02399e
02399e
02399e
02399e
02399e
02399e
02399e
02399e
02399e
02399e
02399e
02399e
02399e
02399e
02399e
02399e
02399e
02399e
02399e
0220d5
008de5
ff374e
0037b5
0040bb
fdaa4e
01014f
02d84a
010f6b
fff464
ff9136
00ae5b
ffe8e6
fe90b3
00d043
0040f8
0220d5
0220d5
0220d5
0220d5
0220d5
0220d5
0220d5
0220d5
0220d5
0220d5
0220d5
0220d5
0220d5
0220d5
0220d5
0220d5
0220d5
0220d5
0220d5
020e45
006f3c
ffa228
002e45
00ad2c
ff7009
00377b
047653
032665
002799
ff5063
ffead7
00188c
ff1194
ff7e8b
015323
020e45
020e45
020e45
020e45
020e45
020e45
020e45
020e45
020e45
020e45
020e45
020e45
020e45
020e45
020e45
020e45
020e45
020e45
020e45
0249ec
006a43
ff99f1
004ae4
00aaa4
ff8d15
00b104
044043
03954c
00b6e6
ff5e1a
ffd979
ffe42d
ff1e57
ffa110
00f8ac
0249ec
0249ec
0249ec
0249ec
0249ec
0249ec
0249ec
0249ec
0249ec
0249ec
0249ec
0249ec
0249ec
0249ec
0249ec
0249ec
0249ec
0249ec
0249ec
020d48
002a26
ff9f48
0053b7
008be1
ff8fcc
0091cc
03bda4
03cf66
003fb4
fec417
ffcabb
fff6d6
ff569f
ff9358
00d391
020d48
020d48
020d48
020d48
020d48
020d48
020d48
020d48
020d48
020d48
020d48
020d48
020d48
020d48
020d48
020d48
020d48
020d48
020d48
01ed47
000a54
ff7da4
005684
009082
ff7fa8
009338
03ad42
038add
005e30
fe858d
ff79ec
ffef19
ff6069
ffb0e0
00cc5e
01ed47
01ed47
01ed47
01ed47
01ed47
01ed47
01ed47
01ed47
01ed47
01ed47
01ed47
01ed47
01ed47
01ed47
01ed47
01ed47
01ed47
01ed47
01ed47
01e51a
fff914
ff6c7d
004462
009204
ff8227
008a84
03ae06
038208
00393f
fe95fb
ff5836
ffc38a
ff5c3d
ffb627
00dc48
01e51a
01e51a
01e51a
01e51a
01e51a
01e51a
01e51a
01e51a
01e51a
01e51a
01e51a
01e51a
01e51a
01e51a
01e51a
01e51a
01e51a
01e51a
01e51a
02092e
ffe504
ff4225
001a49
006581
ff85dc
0090a4
0398ab
0383ea
002392
fe3b4c
ff808b
ff70ca
fef152
ffabea
00e93c
02092e
02092e
02092e
02092e
02092e
02092e
02092e
02092e
02092e
02092e
02092e
02092e
02092e
02092e
02092e
02092e
02092e
02092e
02092e
01e0c4
00290f
ff1c4f
ffca6d
00161b
ff31ea
0097a2
03a439
035ba3
002720
fe126c
fed585
ffbcdc
fe5542
fee244
00d5ee
01e0c4
01e0c4
01e0c4
01e0c4
01e0c4
01e0c4
01e0c4
01e0c4
01e0c4
01e0c4
01e0c4
01e0c4
01e0c4
01e0c4
01e0c4
01e0c4
01e0c4
01e0c4
01e0c4
0191ed
00065f
ff56b5
ffa9f4
ffd191
feedc5
004f96
03aa3a
03658e
00048f
fe1579
feb270
ff2a14
fe968c
fe5c53
0028de
0191ed
0191ed
0191ed
0191ed
0191ed
0191ed
0191ed
0191ed
0191ed
0191ed
0191ed
0191ed
0191ed
0191ed
0191ed
0191ed
0191ed
0191ed
0191ed
019f8d
0033cd
ff6ab1
ff884c
ffe447
ff1544
0076da
03d3be
036218
fffed7
fe2964
feb0ad
ff3e4b
feeb22
fe36b2
00760d
019f8d
019f8d
019f8d
019f8d
019f8d
019f8d
019f8d
019f8d
019f8d
019f8d
019f8d
019f8d
019f8d
019f8d
019f8d
019f8d
019f8d
019f8d
019f8d
02132c
006a6f
0020db
ffd870
ff5d56
ff604b
011536
047130
04088f
fff0f7
fe1279
ff008b
ff373d
ff3c30
ff89d8
ffdf30
02132c
02132c
02132c
02132c
02132c
02132c
02132c
02132c
02132c
02132c
02132c
02132c
02132c
02132c
02132c
02132c
02132c
02132c
02132c
026b7d
00e829
005c43
009e85
ffb47b
fecd8f
0166cb
051d63
04b3c4
00a5fa
fe0363
fee79f
ff8e16
ff3484
ffe1fb
014ffa
026b7d
026b7d
026b7d
026b7d
026b7d
026b7d
026b7d
026b7d
026b7d
026b7d
026b7d
026b7d
026b7d
026b7d
026b7d
026b7d
026b7d
026b7d
026b7d
02513b
01270b
00b5c8
00c8d1
004186
ff0b9c
00fe50
05577a
052e61
011fe1
fe8446
fedce1
ff7c57
ff725b
ffdc85
018ebc
02513b
02513b
02513b
02513b
02513b
02513b
02513b
02513b
02513b
02513b
02513b
02513b
02513b
02513b
02513b
02513b
02513b
02513b
02513b
025fc9
011802
00d9c9
00fc12
0059be
ff5c5d
0121d7
051ba8
054fa3
016614
feca12
ff26ac
ff7630
ff6832
ffffed
018b9b
025fc9
025fc9
025fc9
025fc9
025fc9
025fc9
025fc9
025fc9
025fc9
025fc9
025fc9
025fc9
025fc9
025fc9
025fc9
025fc9
025fc9
025fc9
025fc9
0227e7
012cdc
00c43f
012fa7
00a32c
ff7f0f
019588
054e8e
04f9ef
0195ba
ff2ea5
ff8aaa
ffdfe8
ff5f62
fff15e
01be54
0227e7
0227e7
0227e7
0227e7
0227e7
0227e7
0227e7
0227e7
0227e7
0227e7
0227e7
0227e7
0227e7
0227e7
0227e7
0227e7
0227e7
0227e7
0227e7
0291c7
00cf03
00e744
010b7b
00f9cd
fffa61
01cfcd
0610da
054f69
0105cc
ff7eab
003392
0087d6
0010ee
ffe291
01a5e2
0291c7
0291c7
0291c7
0291c7
0291c7
0291c7
0291c7
0291c7
0291c7
0291c7
0291c7
0291c7
0291c7
0291c7
0291c7
0291c7
0291c7
0291c7
0291c7
01e419
015581
00700e
0137f7
00cbda
00686c
026c74
065adf
064638
017261
fec7d7
009938
015e65
00e640
00c41a
019316
01e419
01e419
01e419
01e419
01e419
01e419
01e419
01e419
01e419
01e419
01e419
01e419
01e419
01e419
01e419
01e419
01e419
01e419
01e419
0159b7
00c102
00e30c
00d20a
00f1e3
004123
02ca8a
06e0cf
068581
024567
ff24ad
fffce6
01b54e
019db3
017a7e
0253ec
0159b7
0159b7
0159b7
0159b7
0159b7
0159b7
0159b7
0159b7
0159b7
0159b7
0159b7
0159b7
0159b7
0159b7
0159b7
0159b7
0159b7
0159b7
0159b7
010a91
005880
0072e7
0128e1
00a4e9
005ddc
02acdf
0727dc
06eaa7
027532
ffc40a
004302
013f41
01df55
020508
02dda9
010a91
010a91
010a91
010a91
010a91
010a91
010a91
010a91
010a91
010a91
010a91
010a91
010a91
010a91
010a91
010a91
010a91
010a91
010a91
003a2c
001f33
00273e
00d7b0
00e3c8
002621
02c1aa
071261
071e18
02be6d
ffe6a4
00b662
017203
0189dd
02348c
0341f5
003a2c
003a2c
003a2c
003a2c
003a2c
003a2c
003a2c
003a2c
003a2c
003a2c
003a2c
003a2c
003a2c
003a2c
003a2c
003a2c
003a2c
003a2c
003a2c
006ffc
ffb10a
0008f3
00afb1
00b8dd
00475d
02a434
071d5f
0712bd
02d99e
000d5a
00c8ac
01af00
01a4b1
02075e
035b13
006ffc
006ffc
006ffc
006ffc
006ffc
006ffc
006ffc
006ffc
006ffc
006ffc
006ffc
006ffc
006ffc
006ffc
006ffc
006ffc
006ffc
006ffc
006ffc
00781f
ffd50c
ffbf3c
009b6c
009e19
002aa5
02ba71
0709a8
071a18
02d205
001f8c
00e293
01bb3d
01cd80
021952
033cd8
00781f
00781f
00781f
00781f
00781f
00781f
00781f
00781f
00781f
00781f
00781f
00781f
00781f
00781f
00781f
00781f
00781f
00781f
00781f
007873
ffd4e7
ffbe9a
009cb5
009e73
002b1c
02baf1
070944
071a70
02d1e4
001fad
00e241
01bac9
01cd49
02189b
033c87
007873
007873
007873
007873
007873
007873
007873
007873
007873
007873
007873
007873
007873
007873
007873
007873
007873
007873
007873
005197
ffea50
ffb561
0073ea
00f1f2
004211
02d941
0729cb
07013e
02e838
001757
00eadc
01a62c
01aff1
020abd
030e4c
005197
005197
005197
005197
005197
005197
005197
005197
005197
005197
005197
005197
005197
005197
005197
005197
005197
005197
005197
00c60c
ff8d13
ffe8c0
005dcb
009013
010a68
031056
077287
074f4b
02abc6
004ce9
00d6dd
01bad2
017e7c
01c456
02ed07
00c60c
00c60c
00c60c
00c60c
00c60c
00c60c
00c60c
00c60c
00c60c
00c60c
00c60c
00c60c
00c60c
00c60c
00c60c
00c60c
00c60c
00c60c
00c60c
00d2ac
006051
ff3fa1
00bafa
0067f3
0058e1
047bbb
07d672
07d33a
033959
ffdf46
01380a
01968e
01a3f0
016aa1
026d53
00d2ac
00d2ac
00d2ac
00d2ac
00d2ac
00d2ac
00d2ac
00d2ac
00d2ac
00d2ac
00d2ac
00d2ac
00d2ac
00d2ac
00d2ac
00d2ac
00d2ac
00d2ac
00d2ac
00f30a
006e07
002513
000348
00cd2a
002d4c
03bae8
096128
083fc1
03c8a6
00790d
00c0f4
02001b
017c8c
01934f
020be3
00f30a
00f30a
00f30a
00f30a
00f30a
00f30a
00f30a
00f30a
00f30a
00f30a
00f30a
00f30a
00f30a
00f30a
00f30a
00f30a
00f30a
00f30a
00f30a
00d4a5
008506
002ed1
00a64a
004aa8
007534
039bf2
08d82a
09582d
0415c0
00dedc
012e34
01ab80
01c789
017753
0228ca
00d4a5
00d4a5
00d4a5
00d4a5
00d4a5
00d4a5
00d4a5
00d4a5
00d4a5
00d4a5
00d4a5
00d4a5
00d4a5
00d4a5
00d4a5
00d4a5
00d4a5
00d4a5
00d4a5
00c48e
00749b
003b3c
00ab8d
00a2b5
002eb5
03c2c9
08c770
090e2d
04ad38
010882
016532
01e683
0199d6
019fd4
0219ac
00c48e
00c48e
00c48e
00c48e
00c48e
00c48e
00c48e
00c48e
00c48e
00c48e
00c48e
00c48e
00c48e
00c48e
00c48e
00c48e
00c48e
00c48e
00c48e
00e455
00691d
002f82
00b46b
00a677
006d96
039071
08e32c
09023b
047860
0174ad
0182f0
020dc8
01c3fa
017f31
023699
00e455
00e455
00e455
00e455
00e455
00e455
00e455
00e455
00e455
00e455
00e455
00e455
00e455
00e455
00e455
00e455
00e455
00e455
00e455
00e606
0099b2
001df1
00a27e
00b406
007354
03f093
089635
092ca3
04661d
0123e2
022850
023b40
020004
01bf9f
0204b4
00e606
00e606
00e606
00e606
00e606
00e606
00e606
00e606
00e606
00e606
00e606
00e606
00e606
00e606
00e606
00e606
00e606
00e606
00e606
00f0ac
009ba4
0055cf
008e4a
009f69
0082ec
03f72e
0904c1
08d422
0496e1
010ee2
01cb68
02f96c
02344e
0204aa
024ecb
00f0ac
00f0ac
00f0ac
00f0ac
00f0ac
00f0ac
00f0ac
00f0ac
00f0ac
00f0ac
00f0ac
00f0ac
00f0ac
00f0ac
00f0ac
00f0ac
00f0ac
00f0ac
00f0ac
00c68e
00a6b4
0057d4
00c853
008a6d
006d83
040761
090b9e
0946f7
043af1
014189
01b598
0298ea
02f9d9
023afb
029683
00c68e
00c68e
00c68e
00c68e
00c68e
00c68e
00c68e
00c68e
00c68e
00c68e
00c68e
00c68e
00c68e
00c68e
00c68e
00c68e
00c68e
00c68e
00c68e
0099ba
008cf7
005e97
00c98f
00ade4
0060b0
03fa4b
091584
094b28
04811f
010959
01d48d
028b95
02bede
02b3b5
02b7b5
0099ba
0099ba
0099ba
0099ba
0099ba
0099ba
0099ba
0099ba
0099ba
0099ba
0099ba
0099ba
0099ba
0099ba
0099ba
0099ba
0099ba
0099ba
0099ba
0098b7
008bf8
005e04
00c9b5
00adeb
006179
03fa02
091539
094b60
048136
010ae7
01d34d
028c44
02be92
02b265
02ba63
0098b7
0098b7
0098b7
0098b7
0098b7
0098b7
0098b7
0098b7
0098b7
0098b7
0098b7
0098b7
0098b7
0098b7
0098b7
0098b7
0098b7
0098b7
0098b7
009298
0093d3
0065c2
00ce26
00acc0
006142
03f3e1
091770
094da2
047f80
010a2d
01c72d
0295f8
02b939
02b4b2
02c492
009298
009298
009298
009298
009298
009298
009298
009298
009298
009298
009298
009298
009298
009298
009298
009298
009298
009298
009298
0093f1
0084be
00791f
00e13b
00b7b5
005e60
03f35a
090856
095317
048512
0105f5
01c563
027817
02d124
02a783
02ca3e
0093f1
0093f1
0093f1
0093f1
0093f1
0093f1
0093f1
0093f1
0093f1
0093f1
0093f1
0093f1
0093f1
0093f1
0093f1
0093f1
0093f1
0093f1
0093f1
007427
0086c3
006282
00fe45
00d454
006ece
03ef08
09078b
093c71
048d42
010e4f
01bf10
027569
02a455
02cb62
02b679
007427
007427
007427
007427
007427
007427
007427
007427
007427
007427
007427
007427
007427
007427
007427
007427
007427
007427
007427
0041a5
004fb0
006603
00d717
0106a3
00a063
040b80
090010
093b12
046606
011c7e
01cd88
026a75
029fb1
027dc1
02f49e
0041a5
0041a5
0041a5
0041a5
0041a5
0041a5
0041a5
0041a5
0041a5
0041a5
0041a5
0041a5
0041a5
0041a5
0041a5
0041a5
0041a5
0041a5
0041a5
0040fd
ffe735
fff415
00de57
00b597
010877
047214
093af5
092b98
046331
00cb54
01eae0
028865
028909
027427
025406
0040fd
0040fd
0040fd
0040fd
0040fd
0040fd
0040fd
0040fd
0040fd
0040fd
0040fd
0040fd
0040fd
0040fd
0040fd
0040fd
0040fd
0040fd
0040fd
00ebe6
ffe66e
ff77e6
0056ed
00be34
00a823
04edc8
09b4e0
097197
0450cc
00c7f7
018a69
02ab45
02ac9e
025939
02489d
00ebe6
00ebe6
00ebe6
00ebe6
00ebe6
00ebe6
00ebe6
00ebe6
00ebe6
00ebe6
00ebe6
00ebe6
00ebe6
00ebe6
00ebe6
00ebe6
00ebe6
00ebe6
00ebe6
008fba
009def
ff7710
ffd199
002cd1
00b163
04865b
0a39b0
09f47d
049bf3
00b437
0186cc
0243b3
02d210
027f6d
022bb3
008fba
008fba
008fba
008fba
008fba
008fba
008fba
008fba
008fba
008fba
008fba
008fba
008fba
008fba
008fba
008fba
008fba
008fba
008fba
00b452
005212
000e19
ffd0e9
ffbf13
0039b9
048df8
09e48f
0a61ce
0507b0
00f212
01768b
0240ba
027cd1
029e3f
024b25
00b452
00b452
00b452
00b452
00b452
00b452
00b452
00b452
00b452
00b452
00b452
00b452
00b452
00b452
00b452
00b452
00b452
00b452
00b452
00a54a
006acf
ffdad0
003703
ffbe9c
ffef89
043d13
09e9b4
0a2842
055196
013ae7
01a05c
0235bd
027ace
02649e
025ffa
00a54a
00a54a
00a54a
00a54a
00a54a
00a54a
00a54a
00a54a
00a54a
00a54a
00a54a
00a54a
00a54a
00a54a
00a54a
00a54a
00a54a
00a54a
00a54a
00c94e
006389
ffe6c8
001e32
fff002
ffef4f
04192e
09c290
0a2abf
0535be
015ea8
01c399
0249f8
02757d
0263a5
024418
00c94e
00c94e
00c94e
00c94e
00c94e
00c94e
00c94e
00c94e
00c94e
00c94e
00c94e
00c94e
00c94e
00c94e
00c94e
00c94e
00c94e
00c94e
00c94e
00beae
006e6e
ffe494
0021d1
ffe87f
fffe41
04191c
09b7b3
0a1ee7
05367e
01563b
01ce6a
0254a1
027b9c
026209
0243cc
00beae
00beae
00beae
00beae
00beae
00beae
00beae
00beae
00beae
00beae
00beae
00beae
00beae
00beae
00beae
00beae
00beae
00beae
00beae
00bf50
005922
fffa6c
001d67
ffefc1
ffef34
043712
09b790
0a0921
051ec0
0157bd
01bd86
026a50
0290fb
026e4e
024092
00bf50
00bf50
00bf50
00bf50
00bf50
00bf50
00bf50
00bf50
00bf50
00bf50
00bf50
00bf50
00bf50
00bf50
00bf50
00bf50
00bf50
00bf50
00bf50
00cd21
0059f1
ffdf2e
003959
ffea1c
fff87d
0423d1
09dde5
0a08f4
0502e6
01395e
01bf74
0254b5
02acb9
0289a6
025045
00cd21
00cd21
00cd21
00cd21
00cd21
00cd21
00cd21
00cd21
00cd21
00cd21
00cd21
00cd21
00cd21
00cd21
00cd21
00cd21
00cd21
00cd21
00cd21
00ceb6
005abc
ffdf39
0037c8
ffebb7
fff829
042459
09dcc9
0a0b27
0502e3
0137c4
01bdb5
0254d1
02ab7b
028b3e
0251d7
00ceb6
00ceb6
00ceb6
00ceb6
00ceb6
00ceb6
00ceb6
00ceb6
00ceb6
00ceb6
00ceb6
00ceb6
00ceb6
00ceb6
00ceb6
00ceb6
00ceb6
00ceb6
00ceb6
009d8c
0037b2
ffcda2
0036bf
000e63
ffd496
042b87
09d0f6
0a23a8
04d218
0137fc
01e128
027b79
02a905
02a6bd
022e86
009d8c
009d8c
009d8c
009d8c
009d8c
009d8c
009d8c
009d8c
009d8c
009d8c
009d8c
009d8c
009d8c
009d8c
009d8c
009d8c
009d8c
009d8c
009d8c
009a7d
0000aa
ffa669
00230e
000d3a
fffb65
0403b5
09d900
0a166c
04ed86
01015e
01e167
02a327
02d44a
02a3fc
024d4e
009a7d
009a7d
009a7d
009a7d
009a7d
009a7d
009a7d
009a7d
009a7d
009a7d
009a7d
009a7d
009a7d
009a7d
009a7d
009a7d
009a7d
009a7d
009a7d
00d660
fffd37
ff6869
fff6de
fff70b
fffa17
042f6e
09ac24
0a1f7a
04de9d
012045
01a3df
02a36e
0300fe
02d4bb
024a33
00d660
00d660
00d660
00d660
00d660
00d660
00d660
00d660
00d660
00d660
00d660
00d660
00d660
00d660
00d660
00d660
00d660
00d660
00d660
010724
005f37
ff62c5
ff916a
ffaebc
ffd5ca
042d4b
09f3b1
09d611
04ed6f
0107df
01d671
023ebd
030173
031de3
0299f9
010724
010724
010724
010724
010724
010724
010724
010724
010724
010724
010724
010724
010724
010724
010724
010724
010724
010724
010724
0174b5
00abd3
fffcb9
ff888e
ff0f5c
ff6433
03f445
09f057
0a4678
047a1e
011f27
01b01d
028e2f
026346
031e9a
030ce5
0174b5
0174b5
0174b5
0174b5
0174b5
0174b5
0174b5
0174b5
0174b5
0174b5
0174b5
0174b5
0174b5
0174b5
0174b5
0174b5
0174b5
0174b5
0174b5
00713d
012106
004eab
002d3a
ff05e2
feb9ba
037ac5
09b359
0a42e2
04f259
00a3ce
01c904
026530
02b840
027569
030da9
00713d
00713d
00713d
00713d
00713d
00713d
00713d
00713d
00713d
00713d
00713d
00713d
00713d
00713d
00713d
00713d
00713d
00713d
00713d
009d53
0078b9
009ab0
006261
ff70b2
feb394
030c32
09648a
0a1b52
04f005
00f1ca
017902
027557
029da9
02ac87
029feb
009d53
009d53
009d53
009d53
009d53
009d53
009d53
009d53
009d53
009d53
009d53
009d53
009d53
009d53
009d53
009d53
009d53
009d53
009d53
008694
008b71
005338
0082a8
ff8744
fee0ef
030996
093596
09f9db
04df38
00f0cd
019a1f
02535d
02a484
02a13c
02b752
008694
008694
008694
008694
008694
008694
008694
008694
008694
008694
008694
008694
008694
008694
008694
008694
008694
008694
008694
008fda
006767
0070e1
00116d
ffba69
ff04b1
035173
093173
09af76
04aa32
00d62f
01988e
0287d5
026eb0
02ac1a
02a56e
008fda
008fda
008fda
008fda
008fda
008fda
008fda
008fda
008fda
008fda
008fda
008fda
008fda
008fda
008fda
008fda
008fda
008fda
008fda
0049a5
00769c
0035c6
004213
ff00b4
ff5892
038c19
09a74f
09a8ae
04302f
007f39
016ce6
028544
02c4bd
0253d2
02b740
0049a5
0049a5
0049a5
0049a5
0049a5
0049a5
0049a5
0049a5
0049a5
0049a5
0049a5
0049a5
0049a5
0049a5
0049a5
0049a5
0049a5
0049a5
0049a5
008739
002f12
004545
0005d9
ff3246
fe9b59
03e191
09e312
0a20c5
042946
0002e7
01144a
0258c9
02c21f
02ab80
025d4c
008739
008739
008739
008739
008739
008739
008739
008739
008739
008739
008739
008739
008739
008739
008739
008739
008739
008739
008739
00ab98
0042e8
002e39
000ad7
ff1ede
feab51
03a49a
09fe9b
0a3405
044ff6
0000ad
00ec3c
023c3d
02b3ca
02aaa8
02798b
00ab98
00ab98
00ab98
00ab98
00ab98
00ab98
00ab98
00ab98
00ab98
00ab98
00ab98
00ab98
00ab98
00ab98
00ab98
00ab98
00ab98
00ab98
00ab98
008349
001b2b
00188c
002404
ff1969
fec083
039327
0a4134
0a15ef
043aed
ffd668
00eeaa
0267fe
02d2f9
02ba4f
027a76
008349
008349
008349
008349
008349
008349
008349
008349
008349
008349
008349
008349
008349
008349
008349
008349
008349
008349
008349
009aa9
ffd70b
ffd563
ffff62
ff43f6
feb74a
03b6fa
0a23b7
0a867e
040815
ffb2db
00a739
026c1a
031cec
02ef04
0294eb
009aa9
009aa9
009aa9
009aa9
009aa9
009aa9
009aa9
009aa9
009aa9
009aa9
009aa9
009aa9
009aa9
009aa9
009aa9
009aa9
009aa9
009aa9
009aa9
0091b5
ffefa8
ff8da8
ffb8ab
ff1d64
fee418
03ad44
0a496f
0a6771
047e99
ff7d52
0081ca
0220e1
03213f
033ce1
02cc6a
0091b5
0091b5
0091b5
0091b5
0091b5
0091b5
0091b5
0091b5
0091b5
0091b5
0091b5
0091b5
0091b5
0091b5
0091b5
0091b5
0091b5
0091b5
0091b5
008343
ffe296
ffb19a
ff4feb
feb620
feabc5
03eeb2
0a3b42
0a9e86
045142
002a64
00339c
01ea37
02b366
034332
033e1f
008343
008343
008343
008343
008343
008343
008343
008343
008343
008343
008343
008343
008343
008343
008343
008343
008343
008343
008343
011472
ffce84
ff9f71
ff81db
fe249a
fe1c4f
03a072
0a9628
0a8ad4
049dc8
ffeb66
01240d
017d9b
026775
02aa97
0346e6
011472
011472
011472
011472
011472
011472
011472
011472
011472
011472
011472
011472
011472
011472
011472
011472
011472
011472
011472
01315d
005b4f
ff8bfa
ff703f
fe5507
fd8f30
031552
0a4a46
0ae2fa
048aae
00359c
00e6f7
0266c6
01fe22
0260f2
02b2e9
01315d
01315d
01315d
01315d
01315d
01315d
01315d
01315d
01315d
01315d
01315d
01315d
01315d
01315d
01315d
01315d
01315d
01315d
01315d
013cb1
006c02
ffdd47
ff6502
fe4adb
fdab27
02c3d3
09f9ef
0ab728
04bd95
002a94
0111d1
02437f
0284c8
02241f
028862
013cb1
013cb1
013cb1
013cb1
013cb1
013cb1
013cb1
013cb1
013cb1
013cb1
013cb1
013cb1
013cb1
013cb1
013cb1
013cb1
013cb1
013cb1
013cb1
0176b2
00733b
ffe7ed
ff98db
fe43b0
fda4aa
02d5a8
09c5f6
0a83eb
04a1a2
004b0a
010ac8
025ed3
026e49
0279fd
026198
0176b2
0176b2
0176b2
0176b2
0176b2
0176b2
0176b2
0176b2
0176b2
0176b2
0176b2
0176b2
0176b2
0176b2
0176b2
0176b2
0176b2
0176b2
0176b2
0152cd
00ba0f
fff0bf
ffa5dc
fe8300
fd9be9
02cdbc
09dbbd
0a4474
046311
0028ea
01326c
02563c
028fa8
025e84
02ca73
0152cd
0152cd
0152cd
0152cd
0152cd
0152cd
0152cd
0152cd
0152cd
0152cd
0152cd
0152cd
0152cd
0152cd
0152cd
0152cd
0152cd
0152cd
0152cd
017e74
0087a2
00543f
ffb240
fe9544
fdf4da
02c170
09d09d
0a630c
0409ea
ffd106
01027c
028deb
028397
028d65
02a3dc
017e74
017e74
017e74
017e74
017e74
017e74
017e74
017e74
017e74
017e74
017e74
017e74
017e74
017e74
017e74
017e74
017e74
017e74
017e74
01a19a
00a4f3
003261
fff512
fe9d96
fe011e
02fd2b
09c85b
0a5b93
041e75
ff9526
00c775
026db9
02a8fd
02854a
02c358
01a19a
01a19a
01a19a
01a19a
01a19a
01a19a
01a19a
01a19a
01a19a
01a19a
01a19a
01a19a
01a19a
01a19a
01a19a
01a19a
01a19a
01a19a
01a19a
0198de
00c2de
004b55
ffd83e
fed677
fe0833
03079c
09fb33
0a548b
041819
ffa6a3
00947d
023b7a
028d95
02a51f
02bc72
0198de
0198de
0198de
0198de
0198de
0198de
0198de
0198de
0198de
0198de
0198de
0198de
0198de
0198de
0198de
0198de
0198de
0198de
0198de
019d18
00be15
005bb7
ffe5e8
fec6ad
fe2759
030b7d
0a00eb
0a7063
04143f
ffa327
009e11
021f90
027211
02961c
02cde1
019d18
019d18
019d18
019d18
019d18
019d18
019d18
019d18
019d18
019d18
019d18
019d18
019d18
019d18
019d18
019d18
019d18
019d18
019d18
018f85
00c097
0058e0
ffefa0
fecec8
fe1dfb
031df8
0a0338
0a73c7
0424c4
ffa0de
009c00
02253e
026181
0285c9
02c4f9
018f85
018f85
018f85
018f85
018f85
018f85
018f85
018f85
018f85
018f85
018f85
018f85
018f85
018f85
018f85
018f85
018f85
018f85
018f85
019e12
00cf5e
005624
fff2b7
fec432
fe1526
03282a
09ef18
0a7145
042112
ff8ee0
009e7c
02277d
025b50
0297d0
02d6bf
019e12
019e12
019e12
019e12
019e12
019e12
019e12
019e12
019e12
019e12
019e12
019e12
019e12
019e12
019e12
019e12
019e12
019e12
019e12
0198b8
0109f2
0091a0
ffe7b7
fed0a2
fdea8a
03049f
0a1825
0a2043
0416fa
ff8000
005612
02317f
02645e
027ee7
031f53
0198b8
0198b8
0198b8
0198b8
0198b8
0198b8
0198b8
0198b8
0198b8
0198b8
0198b8
0198b8
0198b8
0198b8
0198b8
0198b8
0198b8
0198b8
0198b8
015b2f
010102
00f372
004b0e
febe43
fdff4f
02bd77
09dccb
0a64d0
038fb2
ff6f26
003d3b
01b892
027514
028e06
02f5ba
015b2f
015b2f
015b2f
015b2f
015b2f
015b2f
015b2f
015b2f
015b2f
015b2f
015b2f
015b2f
015b2f
015b2f
015b2f
015b2f
015b2f
015b2f
015b2f
006a71
00bdc3
00e9ae
00b5f4
ff2ad2
fdeb3c
02d429
098f09
0a23f4
03da9c
fedb51
002ad1
019d6d
01f0ee
02a04a
030640
006a71
006a71
006a71
006a71
006a71
006a71
006a71
006a71
006a71
006a71
006a71
006a71
006a71
006a71
006a71
006a71
006a71
006a71
006a71
00a7d9
ffcfba
00a731
00ac4c
ff9484
fe5692
02c050
09a57a
09d711
039a7b
ff2563
ff98a5
018b38
01d617
021da1
03184f
00a7d9
00a7d9
00a7d9
00a7d9
00a7d9
00a7d9
00a7d9
00a7d9
00a7d9
00a7d9
00a7d9
00a7d9
00a7d9
00a7d9
00a7d9
00a7d9
00a7d9
00a7d9
00a7d9
0094e9
00132c
ffa1bf
006345
ff89e9
fecaaa
033635
098fad
09efb7
034609
fedef3
ffea00
00eaac
01c217
020026
0288cc
0094e9
0094e9
0094e9
0094e9
0094e9
0094e9
0094e9
0094e9
0094e9
0094e9
0094e9
0094e9
0094e9
0094e9
0094e9
0094e9
0094e9
0094e9
0094e9
009d12
0000a5
ffe3ba
ff6380
ff4278
fec04a
03a7c7
0a0303
09da63
035e26
fe8c56
ffa518
013a43
012507
01ec95
026bf5
009d12
009d12
009d12
009d12
009d12
009d12
009d12
009d12
009d12
009d12
009d12
009d12
009d12
009d12
009d12
009d12
009d12
009d12
009d12
0154a9
00087b
ffd1f1
ffa2d8
fe4ceb
fe7bb3
039dd1
0a700c
0a491d
0349ac
fea37c
ff55c8
00f81c
017170
0155cc
02592d
0154a9
0154a9
0154a9
0154a9
0154a9
0154a9
0154a9
0154a9
0154a9
0154a9
0154a9
0154a9
0154a9
0154a9
0154a9
0154a9
0154a9
0154a9
0154a9
017101
008545
ffd744
ff96c1
fe77f9
fdd4cb
036f32
0a6947
0a933a
0394ef
fe9591
ff6584
00c233
014479
0189bc
01f2af
017101
017101
017101
017101
017101
017101
017101
017101
017101
017101
017101
017101
017101
017101
017101
017101
017101
017101
017101
01739e
0085e8
ffda15
ff96df
fe77b3
fdd5c3
036b6d
0a6839
0a9312
03969b
fe9743
ff6533
00c28d
014341
0188b8
01f3db
01739e
01739e
01739e
01739e
01739e
01739e
01739e
01739e
01739e
01739e
01739e
01739e
01739e
01739e
01739e
01739e
01739e
01739e
01739e
0186c3
005d02
ffd013
ff6ad3
fe75d1
fdda07
035c3a
0aa321
0aa386
0398fe
fe7d1a
ff4aa2
00c776
013db3
019bbf
0203b9
0186c3
0186c3
0186c3
0186c3
0186c3
0186c3
0186c3
0186c3
0186c3
0186c3
0186c3
0186c3
0186c3
0186c3
0186c3
0186c3
0186c3
0186c3
0186c3
016735
007add
ff904d
ff5b39
fe3121
fdd718
0362e1
0a8b6e
0aff63
03b2a6
fe80d3
ff21d7
009e09
01455b
019315
022164
016735
016735
016735
016735
016735
016735
016735
016735
016735
016735
016735
016735
016735
016735
016735
016735
016735
016735
016735
016b06
0058f0
ffb066
ff16a9
fe205b
fd8d40
035fba
0a9295
0ae5e8
041569
fe9c69
ff25d8
00722e
0118d1
019b51
021814
016b06
016b06
016b06
016b06
016b06
016b06
016b06
016b06
016b06
016b06
016b06
016b06
016b06
016b06
016b06
016b06
016b06
016b06
016b06
014ea6
005e25
ff8221
ff4271
fdc2d7
fd765f
02fb02
0a8e48
0aefa9
03f2a8
ff231d
ff4b78
0077a4
00dd00
015e92
02234f
014ea6
014ea6
014ea6
014ea6
014ea6
014ea6
014ea6
014ea6
014ea6
014ea6
014ea6
014ea6
014ea6
014ea6
014ea6
014ea6
014ea6
014ea6
014ea6
015fac
003f98
ff87bc
ff109f
fdf1fb
fd11af
02e260
0a21d6
0aeb07
03fd29
fefdb2
ffdc81
00a027
00e2e1
011e2a
01e1e7
015fac
015fac
015fac
015fac
015fac
015fac
015fac
015fac
015fac
015fac
015fac
015fac
015fac
015fac
015fac
015fac
015fac
015fac
015fac
013e16
005091
ff6945
ff1636
fdc04d
fd40b1
027df8
0a0945
0a7ee2
03f88b
ff082b
ffb731
0130c9
010b47
012407
01a1ad
013e16
013e16
013e16
013e16
013e16
013e16
013e16
013e16
013e16
013e16
013e16
013e16
013e16
013e16
013e16
013e16
013e16
013e16
013e16
015658
0032d6
ff784c
fefb3e
fdc540
fd14b7
02a794
09b064
0a6923
0398d1
ff0414
ffc076
010fc1
018b4e
0147c9
01a6de
015658
015658
015658
015658
015658
015658
015658
015658
015658
015658
015658
015658
015658
015658
015658
015658
015658
015658
015658
0181f7
004fbe
ff54de
ff0d26
fda51d
fd1a9d
02732c
09e1fa
09ff38
037ee7
fe9200
ffbb97
011acd
0163f1
01e05b
01d17b
0181f7
0181f7
0181f7
0181f7
0181f7
0181f7
0181f7
0181f7
0181f7
0181f7
0181f7
0181f7
0181f7
0181f7
0181f7
0181f7
0181f7
0181f7
0181f7
01e2fd
0079a4
ff70a1
feeb1f
fdb650
fcfbbf
0278d6
09afa4
0a2ed9
03192c
fe791c
ff4e05
01161f
016e8e
01ba8c
026405
01e2fd
01e2fd
01e2fd
01e2fd
01e2fd
01e2fd
01e2fd
01e2fd
01e2fd
01e2fd
01e2fd
01e2fd
01e2fd
01e2fd
01e2fd
01e2fd
01e2fd
01e2fd
01e2fd
01d63c
00ea07
ffa12a
ff0b48
fd8ee5
fd0fab
025515
09b634
09f48a
035058
fe0345
ff3130
009733
016923
01c6d7
02383a
01d63c
01d63c
01d63c
01d63c
01d63c
01d63c
01d63c
01d63c
01d63c
01d63c
01d63c
01d63c
01d63c
01d63c
01d63c
01d63c
01d63c
01d63c
01d63c
014a37
00dd4f
00113f
ff3baf
fdaef8
fce85c
0268f3
09928c
09fb15
031632
fe3a4a
febbab
007a73
00ea90
01c16f
02447c
014a37
014a37
014a37
014a37
014a37
014a37
014a37
014a37
014a37
014a37
014a37
014a37
014a37
014a37
014a37
014a37
014a37
014a37
014a37
011d31
006aa4
0006d5
ff9778
fdd69b
fd02a0
0248c2
09a2d1
09dde1
031b8e
fe0aab
fee8ba
001a35
00d304
0159c7
02400f
011d31
011d31
011d31
011d31
011d31
011d31
011d31
011d31
011d31
011d31
011d31
011d31
011d31
011d31
011d31
011d31
011d31
011d31
011d31
013eef
0055b9
ffd18e
ff92a1
fe0140
fd150a
0254f6
0993dc
09e570
030dfc
fe0d28
fed299
002f24
00a64c
014ed6
020fe5
013eef
013eef
013eef
013eef
013eef
013eef
013eef
013eef
013eef
013eef
013eef
013eef
013eef
013eef
013eef
013eef
013eef
013eef
013eef
013fc2
0054ae
ffd233
ff9446
fe0166
fd13b8
025464
09937b
09e5e6
030dc0
fe0d93
fed285
002fd2
00a5a6
015037
02103b
013fc2
013fc2
013fc2
013fc2
013fc2
013fc2
013fc2
013fc2
013fc2
013fc2
013fc2
013fc2
013fc2
013fc2
013fc2
013fc2
013fc2
013fc2
013fc2
0137aa
005db5
ffc6ca
ff9b58
fe1368
fd155a
0245f9
098d41
09e1c5
0312ce
fe0b04
fed71b
002efa
00ad20
014923
021f58
0137aa
0137aa
0137aa
0137aa
0137aa
0137aa
0137aa
0137aa
0137aa
0137aa
0137aa
0137aa
0137aa
0137aa
0137aa
0137aa
0137aa
0137aa
0137aa
013490
0045b4
ffe192
ff7983
fe2860
fd4ac3
024ad2
09627f
09cf4e
030691
fe1a02
fecf86
003c93
00aaa0
015f51
020a5a
013490
013490
013490
013490
013490
013490
013490
013490
013490
013490
013490
013490
013490
013490
013490
013490
013490
013490
013490
00e47c
003eca
ffac02
ffb547
fddce0
fd798f
02c203
096d52
096fe4
02dd5c
fdfeb4
fef0fc
002ba8
00c8fa
0159be
023bd9
00e47c
00e47c
00e47c
00e47c
00e47c
00e47c
00e47c
00e47c
00e47c
00e47c
00e47c
00e47c
00e47c
00e47c
00e47c
00e47c
00e47c
00e47c
00e47c
01a06f
ffb517
ffa01e
ff592c
fe43a6
fcf7bb
03127c
0a3a48
098281
023949
fdb7d8
fec208
006532
00abe3
018def
023243
01a06f
01a06f
01a06f
01a06f
01a06f
01a06f
01a06f
01a06f
01a06f
01a06f
01a06f
01a06f
01a06f
01a06f
01a06f
01a06f
01a06f
01a06f
01a06f
01b594
0086cb
ff067a
ff4be8
fddce2
fd6a66
0281a2
0a9411
0a6730
024e0d
fd00c8
fe72f9
0030ce
00ec16
016d7a
026c7f
01b594
01b594
01b594
01b594
01b594
01b594
01b594
01b594
01b594
01b594
01b594
01b594
01b594
01b594
01b594
01b594
01b594
01b594
01b594
021e43
0097ee
ffb06d
fecf65
fdd222
fd171d
02de90
0a1eac
0aaff4
030762
fd119d
fdde9d
fff0bc
00c1a1
01a181
025231
021e43
021e43
021e43
021e43
021e43
021e43
021e43
021e43
021e43
021e43
021e43
021e43
021e43
021e43
021e43
021e43
021e43
021e43
021e43
0105b9
010c75
ffc380
ff8c92
fd4789
fd0b25
0281db
0a861d
0a2d48
035861
fddfe9
fdf159
ff4b97
007a4f
01723e
028c1b
0105b9
0105b9
0105b9
0105b9
0105b9
0105b9
0105b9
0105b9
0105b9
0105b9
0105b9
0105b9
0105b9
0105b9
0105b9
0105b9
0105b9
0105b9
0105b9
00b574
fff199
0038fd
ff9fce
fe0646
fc7f67
0275ca
0a28a4
0a9594
02d4a0
fe3193
fec159
ff5e7b
ffd3cd
012a55
025c74
00b574
00b574
00b574
00b574
00b574
00b574
00b574
00b574
00b574
00b574
00b574
00b574
00b574
00b574
00b574
00b574
00b574
00b574
00b574
004f5e
ffb481
ff61b5
fff939
fe14e9
fd1092
020b6e
0a1f75
0a4e70
032401
fdcd4c
feff81
fffcca
ffe22d
00ab9b
0225b9
004f5e
004f5e
004f5e
004f5e
004f5e
004f5e
004f5e
004f5e
004f5e
004f5e
004f5e
004f5e
004f5e
004f5e
004f5e
004f5e
004f5e
004f5e
004f5e
0078df
ff7e6b
ff4157
ff872a
fe4449
fd1853
025857
09e71b
0a4992
02fe50
fdf75a
feca60
001db8
00360c
00b339
01e294
0078df
0078df
0078df
0078df
0078df
0078df
0078df
0078df
0078df
0078df
0078df
0078df
0078df
0078df
0078df
0078df
0078df
0078df
0078df
007f7f
ff8d61
ff2dd7
ff7b7e
fe1b2a
fd2967
025b22
0a02d5
0a3541
02fc8f
fde9c3
fed989
000a90
0041eb
00d176
01e553
007f7f
007f7f
007f7f
007f7f
007f7f
007f7f
007f7f
007f7f
007f7f
007f7f
007f7f
007f7f
007f7f
007f7f
007f7f
007f7f
007f7f
007f7f
007f7f
00810b
ff900a
ff33da
ff73a7
fe1679
fd18df
0261ff
0a03f4
0a4066
02f464
fde90e
fed412
0010a8
003a38
00d63b
01f17a
00810b
00810b
00810b
00810b
00810b
00810b
00810b
00810b
00810b
00810b
00810b
00810b
00810b
00810b
00810b
00810b
00810b
00810b
00810b
008e29
ff8cc8
ff2e40
ff6702
fe26f1
fd22ba
0284bb
09f586
0a3e09
02dcf7
fdfa37
fed58d
001c22
002d69
00e669
01e772
008e29
008e29
008e29
008e29
008e29
008e29
008e29
008e29
008e29
008e29
008e29
008e29
008e29
008e29
008e29
008e29
008e29
008e29
008e29
007da9
ffcdfb
ff1e11
ff4b30
fde820
fd7493
02b5b6
0aa223
09f655
02d139
fd85d0
ff2ad4
00237e
006673
00a6c2
0237d8
007da9
007da9
007da9
007da9
007da9
007da9
007da9
007da9
007da9
007da9
007da9
007da9
007da9
007da9
007da9
007da9
007da9
007da9
007da9
00c715
ffb0e3
ff9106
ff2ea8
fdb714
fd05d1
034607
0af880
0b26ad
0252ce
fd711d
fe5d98
00b9da
00736d
010b54
01c79e
00c715
00c715
00c715
00c715
00c715
00c715
00c715
00c715
00c715
00c715
00c715
00c715
00c715
00c715
00c715
00c715
00c715
00c715
00c715
fff8f6
fff75b
ff751a
ff9cfe
fd9bb2
fcd6bd
02dbb9
0b8303
0b7991
0376eb
fcf7c7
fe49ba
fff4de
0103bd
0117c9
022825
fff8f6
fff8f6
fff8f6
fff8f6
fff8f6
fff8f6
fff8f6
fff8f6
fff8f6
fff8f6
fff8f6
fff8f6
fff8f6
fff8f6
fff8f6
fff8f6
fff8f6
fff8f6
fff8f6
ffda33
ff4502
ffb213
ff84d5
fdfb2a
fcbf0b
02b2fd
0b2708
0bf16b
03bea4
fdf487
fde0bd
ffe3ad
00594c
0194a7
0232ec
ffda33
ffda33
ffda33
ffda33
ffda33
ffda33
ffda33
ffda33
ffda33
ffda33
ffda33
ffda33
ffda33
ffda33
ffda33
ffda33
ffda33
ffda33
ffda33
ff9a74
ff299e
ff1343
ffbb21
fde5a6
fd140e
029de4
0b02c2
0b9f83
04295d
fe3465
fec1cf
ff862f
0049fd
00fce0
02a21d
ff9a74
ff9a74
ff9a74
ff9a74
ff9a74
ff9a74
ff9a74
ff9a74
ff9a74
ff9a74
ff9a74
ff9a74
ff9a74
ff9a74
ff9a74
ff9a74
ff9a74
ff9a74
ff9a74
ff0842
fedd45
fef275
fefced
fe26ad
fcfa4a
0303b4
0ae97d
0b7412
03c745
feb436
ff0e4c
0093bc
ffda05
00ea8b
01ec57
ff0842
ff0842
ff0842
ff0842
ff0842
ff0842
ff0842
ff0842
ff0842
ff0842
ff0842
ff0842
ff0842
ff0842
ff0842
ff0842
ff0842
ff0842
ff0842
ff30f5
fe5ee4
feb076
fee091
fd8242
fd3280
02ed6e
0b4180
0b5e3a
03a1b8
fe5f6a
ff7cc9
00d5db
00c307
0089c1
01dc7e
ff30f5
ff30f5
ff30f5
ff30f5
ff30f5
ff30f5
ff30f5
ff30f5
ff30f5
ff30f5
ff30f5
ff30f5
ff30f5
ff30f5
ff30f5
ff30f5
ff30f5
ff30f5
ff30f5
ff423f
fe7e0a
fe4fbe
feae0f
fd6c8e
fcb4ab
031873
0b3074
0ba195
039100
fe42ad
ff3be3
012a6a
00f5a1
013c15
01926b
ff423f
ff423f
ff423f
ff423f
ff423f
ff423f
ff423f
ff423f
ff423f
ff423f
ff423f
ff423f
ff423f
ff423f
ff423f
ff423f
ff423f
ff423f
ff423f
ff430d
fe84d3
fe5bf7
fe881a
fd58bb
fcac26
02e711
0b4156
0b9ae4
03ab6f
fe3c1d
ff309b
0110f2
0116d0
014ff1
01d866
ff430d
ff430d
ff430d
ff430d
ff430d
ff430d
ff430d
ff430d
ff430d
ff430d
ff430d
ff430d
ff430d
ff430d
ff430d
ff430d
ff430d
ff430d
ff430d
ff3e7d
fe84f0
fe5ced
fe89d6
fd5356
fca955
02e5db
0b3a52
0b9d49
03aa7b
fe3fde
ff2fac
010f57
011332
0154a7
01db38
ff3e7d
ff3e7d
ff3e7d
ff3e7d
ff3e7d
ff3e7d
ff3e7d
ff3e7d
ff3e7d
ff3e7d
ff3e7d
ff3e7d
ff3e7d
ff3e7d
ff3e7d
ff3e7d
ff3e7d
ff3e7d
ff3e7d
ff2e1e
fe984d
fe5c70
fe85bd
fd4bf6
fcc03b
02f1d0
0b3f75
0bbb13
03a04b
fe43e7
ff1fb9
01134c
0119ff
016404
01c732
ff2e1e
ff2e1e
ff2e1e
ff2e1e
ff2e1e
ff2e1e
ff2e1e
ff2e1e
ff2e1e
ff2e1e
ff2e1e
ff2e1e
ff2e1e
ff2e1e
ff2e1e
ff2e1e
ff2e1e
ff2e1e
ff2e1e
ff2604
fe7e37
fe7b4b
fe84f6
fd456f
fcb47a
03164d
0b5283
0bc343
03cfc4
fe33ab
ff2627
00f9e2
01204d
016edb
01dfad
ff2604
ff2604
ff2604
ff2604
ff2604
ff2604
ff2604
ff2604
ff2604
ff2604
ff2604
ff2604
ff2604
ff2604
ff2604
ff2604
ff2604
ff2604
ff2604
ff3324
fe6ed8
fe49cd
febf81
fd43f7
fca819
030001
0b97bd
0be769
03df4c
fe8dbb
ff075b
010615
00f016
017ad2
01f43e
ff3324
ff3324
ff3324
ff3324
ff3324
ff3324
ff3324
ff3324
ff3324
ff3324
ff3324
ff3324
ff3324
ff3324
ff3324
ff3324
ff3324
ff3324
ff3324
ff31e4
fe7f32
fe36a8
fe81db
fd8ce4
fca644
02f095
0b7bf6
0c3da5
040c54
fea114
ff778d
00dfb8
00ff48
013ec2
020325
ff31e4
ff31e4
ff31e4
ff31e4
ff31e4
ff31e4
ff31e4
ff31e4
ff31e4
ff31e4
ff31e4
ff31e4
ff31e4
ff31e4
ff31e4
ff31e4
ff31e4
ff31e4
ff31e4
ff4246
fe7dc4
fe495a
fe6bf8
fd4669
fcf9a3
02ee7d
0b6a55
0c1de4
046eeb
fed490
ff8dac
015ffc
00d36d
015022
01be7b
ff4246
ff4246
ff4246
ff4246
ff4246
ff4246
ff4246
ff4246
ff4246
ff4246
ff4246
ff4246
ff4246
ff4246
ff4246
ff4246
ff4246
ff4246
ff4246
ffbed3
fe906a
fe47ba
fe8140
fd2d7e
fca967
034d67
0b67f3
0c09d2
044ac5
ff44cc
ffc848
01792b
016572
011e35
01d242
ffbed3
ffbed3
ffbed3
ffbed3
ffbed3
ffbed3
ffbed3
ffbed3
ffbed3
ffbed3
ffbed3
ffbed3
ffbed3
ffbed3
ffbed3
ffbed3
ffbed3
ffbed3
ffbed3
ffd783
ff279e
fe5e5e
fe7f47
fd4754
fc8b28
02ec00
0bdb2b
0c06ee
043268
ff18ea
005088
01c051
018404
01cf78
0195a6
ffd783
ffd783
ffd783
ffd783
ffd783
ffd783
ffd783
ffd783
ffd783
ffd783
ffd783
ffd783
ffd783
ffd783
ffd783
ffd783
ffd783
ffd783
ffd783
001887
ff3df6
fee73c
fe93c5
fd458b
fca28b
02d09f
0b8300
0c6f3a
042fca
ff02dc
0028cf
023ba5
01c46b
01eb24
02361a
001887
001887
001887
001887
001887
001887
001887
001887
001887
001887
001887
001887
001887
001887
001887
001887
001887
001887
001887
0061d8
ff7c35
fefca1
ff16cf
fd592a
fca0d5
02e703
0b68c9
0c1ad0
0493a5
ff005a
0013b2
02159d
023a80
0228ce
025098
0061d8
0061d8
0061d8
0061d8
0061d8
0061d8
0061d8
0061d8
0061d8
0061d8
0061d8
0061d8
0061d8
0061d8
0061d8
0061d8
0061d8
0061d8
0061d8
00ade0
ffbc96
ff334a
ff2998
fdcc3c
fcb210
02e582
0b7c72
0c03cb
044985
ff580a
00117f
020312
02191a
02907e
0286be
00ade0
00ade0
00ade0
00ade0
00ade0
00ade0
00ade0
00ade0
00ade0
00ade0
00ade0
00ade0
00ade0
00ade0
00ade0
00ade0
00ade0
00ade0
00ade0
00cfff
00068c
ff71ea
ff5ec4
fdde82
fd21fe
02f644
0b7afc
0c16eb
043321
ff0fef
0066ca
0200ee
020711
027002
02eb9b
00cfff
00cfff
00cfff
00cfff
00cfff
00cfff
00cfff
00cfff
00cfff
00cfff
00cfff
00cfff
00cfff
00cfff
00cfff
00cfff
00cfff
00cfff
00cfff
01449d
00259d
ffb541
ff97c9
fe0eeb
fd32a1
035c2e
0b8a3e
0c1596
04448b
fefb8c
002523
024e98
02051e
025f96
02ce07
01449d
01449d
01449d
01449d
01449d
01449d
01449d
01449d
01449d
01449d
01449d
01449d
01449d
01449d
01449d
01449d
01449d
01449d
01449d
0118d2
008094
ffcd7d
ffcc50
fe3b65
fd5864
036928
0bd9bd
0c217d
044381
ff0921
00153c
021b62
0241b2
025e11
02c138
0118d2
0118d2
0118d2
0118d2
0118d2
0118d2
0118d2
0118d2
0118d2
0118d2
0118d2
0118d2
0118d2
0118d2
0118d2
0118d2
0118d2
0118d2
0118d2
010ddf
006c47
fff7a7
ffd78b
fe53be
fd6d02
037aa9
0bdfc1
0c4656
044905
ff08a5
001b87
021402
0229f5
027a25
02c083
010ddf
010ddf
010ddf
010ddf
010ddf
010ddf
010ddf
010ddf
010ddf
010ddf
010ddf
010ddf
010ddf
010ddf
010ddf
010ddf
010ddf
010ddf
010ddf
010db7
007040
ffff04
ffc83d
fe4faa
fd642b
03732d
0bd966
0c4427
043ba5
ff06a4
001bb3
0211b9
022ca1
0282c2
02b652
010db7
010db7
010db7
010db7
010db7
010db7
010db7
010db7
010db7
010db7
010db7
010db7
010db7
010db7
010db7
010db7
010db7
010db7
010db7
010ce8
006fc8
000b0d
ffde8e
fe214e
fd57d1
035867
0bc2ba
0c30e7
043507
fede20
0015a1
021240
0225b4
028adc
02d06b
010ce8
010ce8
010ce8
010ce8
010ce8
010ce8
010ce8
010ce8
010ce8
010ce8
010ce8
010ce8
010ce8
010ce8
010ce8
010ce8
010ce8
010ce8
010ce8
00e424
006e01
000a05
fff91c
fe5289
fcf18b
033d27
0b87ab
0bfee5
040a91
fecf88
ffbc40
0204dd
0226de
027b96
02e24b
00e424
00e424
00e424
00e424
00e424
00e424
00e424
00e424
00e424
00e424
00e424
00e424
00e424
00e424
00e424
00e424
00e424
00e424
00e424
0126b5
0039d7
0007be
fff7cb
fe7484
fd308b
02ba48
0b64cc
0bb352
03ca93
fe9933
ffa993
01927d
0215bd
027d13
02cebf
0126b5
0126b5
0126b5
0126b5
0126b5
0126b5
0126b5
0126b5
0126b5
0126b5
0126b5
0126b5
0126b5
0126b5
0126b5
0126b5
0126b5
0126b5
0126b5
011ca4
0086c1
ffcb79
fff52a
fe72fe
fd57ce
030313
0acd96
0b8b08
037341
fe4f43
ff6acc
017ce9
019196
026949
02d078
011ca4
011ca4
011ca4
011ca4
011ca4
011ca4
011ca4
011ca4
011ca4
011ca4
011ca4
011ca4
011ca4
011ca4
011ca4
011ca4
011ca4
011ca4
011ca4
00d667
0079a6
002f98
ffa6b5
fe6f92
fd55d3
03362f
0b2c58
0ac630
033ecf
fddd97
ff0a8c
012b30
01757f
01bd41
02b6b5
00d667
00d667
00d667
00d667
00d667
00d667
00d667
00d667
00d667
00d667
00d667
00d667
00d667
00d667
00d667
00d667
00d667
00d667
00d667
016532
002e22
002181
00125a
fe1b38
fd5225
03340e
0b634b
0b2c11
026b2e
fda534
fe9056
00c3b5
011da3
019f0e
01fdc1
016532
016532
016532
016532
016532
016532
016532
016532
016532
016532
016532
016532
016532
016532
016532
016532
016532
016532
016532
015106
00a756
ffe168
000665
fe7696
fd0a8c
0330ef
0b617c
0b5ab5
02c1a7
fcf192
fe607a
005bf9
00c5cd
01547a
01e41f
015106
015106
015106
015106
015106
015106
015106
015106
015106
015106
015106
015106
015106
015106
015106
015106
015106
015106
015106
01244a
009643
004802
ffd022
fe6c76
fd57e5
02f453
0b5ed7
0b592d
02e923
fd3ac6
fdc869
003375
006dfd
010a1f
01a4fd
01244a
01244a
01244a
01244a
01244a
01244a
01244a
01244a
01244a
01244a
01244a
01244a
01244a
01244a
01244a
01244a
01244a
01244a
01244a
01131a
0073cd
003adb
001f2c
fe42a9
fd5018
032fe8
0b3026
0b5724
02e7f5
fd5930
fe00cd
ffbe50
004ec7
00c679
016bb5
01131a
01131a
01131a
01131a
01131a
01131a
01131a
01131a
01131a
01131a
01131a
01131a
01131a
01131a
01131a
01131a
01131a
01131a
01131a
00edb5
0066d8
0020e1
001541
fe7e3e
fd3095
032a07
0b5d10
0b33f1
02e66c
fd584c
fe17ba
ffe8d2
fff678
00aef2
0138b6
00edb5
00edb5
00edb5
00edb5
00edb5
00edb5
00edb5
00edb5
00edb5
00edb5
00edb5
00edb5
00edb5
00edb5
00edb5
00edb5
00edb5
00edb5
00edb5
00d20e
0051e9
0019a0
0006b6
fe78b1
fd51ef
031863
0b59c5
0b4d16
02d2b8
fd5770
fe173a
fff5a8
000e44
007d83
012b8a
00d20e
00d20e
00d20e
00d20e
00d20e
00d20e
00d20e
00d20e
00d20e
00d20e
00d20e
00d20e
00d20e
00d20e
00d20e
00d20e
00d20e
00d20e
00d20e
00b8ad
005d2a
002225
0009a9
fe7e9c
fd5431
030acf
0b60f2
0b4e6c
02c87b
fd5f75
fe1793
fff5db
00090a
0073d3
013fa8
00b8ad
00b8ad
00b8ad
00b8ad
00b8ad
00b8ad
00b8ad
00b8ad
00b8ad
00b8ad
00b8ad
00b8ad
00b8ad
00b8ad
00b8ad
00b8ad
00b8ad
00b8ad
00b8ad
007571
fff694
004fa4
002c19
fe8a8a
fd6c1d
0313f0
0b2a10
0b6b71
02cde4
fd3615
fe37fe
fff744
0009db
005eb4
011880
007571
007571
007571
007571
007571
007571
007571
007571
007571
007571
007571
007571
007571
007571
007571
007571
007571
007571
007571
006638
ffa4a2
ffd29c
00638c
feb484
fd7aa8
033119
0b3531
0b288d
02f143
fd3cae
fe0591
001ec7
000b93
005fb3
00fec2
006638
006638
006638
006638
006638
006638
006638
006638
006638
006638
006638
006638
006638
006638
006638
006638
006638
006638
006638
00b349
ff91c8
ff6d21
ffc8b5
fef92f
fdaea4
03431b
0b594d
0b3655
029e6c
fd687c
fe0dbc
ffe054
003c81
0061d4
00fffe
00b349
00b349
00b349
00b349
00b349
00b349
00b349
00b349
00b349
00b349
00b349
00b349
00b349
00b349
00b349
00b349
00b349
00b349
00b349
00f870
fff63c
ff548f
ff446f
fe2f5c
fe0826
0386dd
0b70c7
0b6567
02b063
fcfc82
fe46d5
ffeafa
ffeb1b
00a19b
0102c5
00f870
00f870
00f870
00f870
00f870
00f870
00f870
00f870
00f870
00f870
00f870
00f870
00f870
00f870
00f870
00f870
00f870
00f870
00f870
01091a
0047e5
ffcb2e
ff276b
fd9329
fd19d1
03f090
0bc0ca
0b8120
02e7f8
fd11b9
fdc753
002e67
fff7ae
00417c
014e15
01091a
01091a
01091a
01091a
01091a
01091a
01091a
01091a
01091a
01091a
01091a
01091a
01091a
01091a
01091a
01091a
01091a
01091a
01091a
00b8a4
0059da
00232b
ffa73c
fd73e5
fc7184
02efc2
0c32ae
0bd757
0305d7
fd4d9d
fdde2f
ffa504
004054
004f09
00e683
00b8a4
00b8a4
00b8a4
00b8a4
00b8a4
00b8a4
00b8a4
00b8a4
00b8a4
00b8a4
00b8a4
00b8a4
00b8a4
00b8a4
00b8a4
00b8a4
00b8a4
00b8a4
00b8a4
0119ae
002032
003009
ffe649
fdcf7b
fc5b1d
027728
0b7aaa
0c28f3
03439e
fd6304
fe0919
ffb565
ffdde1
008318
00f039
0119ae
0119ae
0119ae
0119ae
0119ae
0119ae
0119ae
0119ae
0119ae
0119ae
0119ae
0119ae
0119ae
0119ae
0119ae
0119ae
0119ae
0119ae
0119ae
0187ea
005f37
000a97
ffeea4
fdf86d
fc9698
02689b
0b2c57
0bb171
03789e
fd8b23
fe16ff
ffd144
ffe884
004328
011208
0187ea
0187ea
0187ea
0187ea
0187ea
0187ea
0187ea
0187ea
0187ea
0187ea
0187ea
0187ea
0187ea
0187ea
0187ea
0187ea
0187ea
0187ea
0187ea
01c701
00c4a6
004494
ffcc30
fe001d
fcbc45
029f56
0b1ef3
0b695f
030aa7
fdbbe8
fe3bea
ffde0e
000229
004cf1
00d733
01c701
01c701
01c701
01c701
01c701
01c701
01c701
01c701
01c701
01c701
01c701
01c701
01c701
01c701
01c701
01c701
01c701
01c701
01c701
01b708
010a0b
00b426
000bf9
fdda37
fcc4ba
02c8c7
0b5b27
0b5aa5
02bb61
fd42f3
fe718f
0006a9
00103a
006926
00e1f7
01b708
01b708
01b708
01b708
01b708
01b708
01b708
01b708
01b708
01b708
01b708
01b708
01b708
01b708
01b708
01b708
01b708
01b708
01b708
01a834
00fd67
00eb10
006443
fe0cb1
fca6bc
02cf78
0b7bf3
0b8a49
02afb9
fd0438
fe11d7
00311c
00305c
007448
00f849
01a834
01a834
01a834
01a834
01a834
01a834
01a834
01a834
01a834
01a834
01a834
01a834
01a834
01a834
01a834
01a834
01a834
01a834
01a834
01a1c5
00f7d4
00e650
0078e5
fe2ddd
fcb9b3
02c433
0b7e76
0b969b
02c19f
fcffd7
fdfa45
000d25
00404f
00805b
00fc77
01a1c5
01a1c5
01a1c5
01a1c5
01a1c5
01a1c5
01a1c5
01a1c5
01a1c5
01a1c5
01a1c5
01a1c5
01a1c5
01a1c5
01a1c5
01a1c5
01a1c5
01a1c5
01a1c5
01a051
00fcd9
00eaa9
007c9a
fe1dc0
fc9fcb
02b564
0b8742
0b94a4
02b7ff
fcf1dd
fdfdb0
001f8c
005c63
0073e6
00f309
01a051
01a051
01a051
01a051
01a051
01a051
01a051
01a051
01a051
01a051
01a051
01a051
01a051
01a051
01a051
01a051
01a051
01a051
01a051
01a30f
00fae6
00f168
008272
fe22bb
fc8a25
029296
0b735c
0ba076
02b55b
fce4ef
fdeae8
002423
00751d
0099a0
00e24d
01a30f
01a30f
01a30f
01a30f
01a30f
01a30f
01a30f
01a30f
01a30f
01a30f
01a30f
01a30f
01a30f
01a30f
01a30f
01a30f
01a30f
01a30f
01a30f
019b11
00fdfa
00ef38
008a05
fe294b
fc8fbd
027a45
0b4c44
0b8a1c
02c2a1
fce1f8
fddc62
000f0b
007a45
00b565
010cad
019b11
019b11
019b11
019b11
019b11
019b11
019b11
019b11
019b11
019b11
019b11
019b11
019b11
019b11
019b11
019b11
019b11
019b11
019b11
01b6a4
00eebd
00f517
0085d9
fe37be
fc9c41
0284f0
0b1de6
0b3f91
029803
fcfb49
fdd6bb
fff35a
00520c
00bf3b
0141a2
01b6a4
01b6a4
01b6a4
01b6a4
01b6a4
01b6a4
01b6a4
01b6a4
01b6a4
01b6a4
01b6a4
01b6a4
01b6a4
01b6a4
01b6a4
01b6a4
01b6a4
01b6a4
01b6a4
015b60
012880
00d52d
009226
fe2f01
fcba85
029f28
0b343f
0ade72
01fbde
fca204
fe0bc3
ffe783
00180b
006afa
01563d
015b60
015b60
015b60
015b60
015b60
015b60
015b60
015b60
015b60
015b60
015b60
015b60
015b60
015b60
015b60
015b60
015b60
015b60
015b60
017fe3
00bb34
011a5a
006bee
fe3dbd
fcb00e
02c367
0b53a5
0af936
01878e
fbe704
fda0db
002706
0009dd
002583
00f156
017fe3
017fe3
017fe3
017fe3
017fe3
017fe3
017fe3
017fe3
017fe3
017fe3
017fe3
017fe3
017fe3
017fe3
017fe3
017fe3
017fe3
017fe3
017fe3
013a34
00e08d
00aa8c
00b2b1
fe16a4
fcbf20
02b8b2
0b78b9
0b1954
01a2ef
fb7009
fce192
ffb9aa
004ad5
001702
00aa48
013a34
013a34
013a34
013a34
013a34
013a34
013a34
013a34
013a34
013a34
013a34
013a34
013a34
013a34
013a34
013a34
013a34
013a34
013a34
0121b4
00a27a
00cbd1
004f19
fe55ad
fc9c4c
02c61f
0b6f30
0b3a5b
01bf8b
fb886c
fc7795
ff0f44
ffe96a
0050e2
009d5d
0121b4
0121b4
0121b4
0121b4
0121b4
0121b4
0121b4
0121b4
0121b4
0121b4
0121b4
0121b4
0121b4
0121b4
0121b4
0121b4
0121b4
0121b4
0121b4
014400
008db0
009725
006b54
fe012b
fcd1c8
02a892
0b7a94
0b3243
01db92
fba0b3
fc8c46
feb555
ff58d4
fffe39
00ce78
014400
014400
014400
014400
014400
014400
014400
014400
014400
014400
014400
014400
014400
014400
014400
014400
014400
014400
014400
01766d
00a883
0086e3
004223
fe173f
fc8fb0
02d266
0b6377
0b3b2b
01d53e
fbb69e
fc9f42
fec584
ff127e
ff8d25
008dd2
01766d
01766d
01766d
01766d
01766d
01766d
01766d
01766d
01766d
01766d
01766d
01766d
01766d
01766d
01766d
01766d
01766d
01766d
01766d
014c8f
00cf6e
009b97
003597
fdf774
fca0ba
029f63
0b83c0
0b2954
01dc1e
fbb1bb
fcb02c
fed42b
ff1efb
ff56dc
00368c
014c8f
014c8f
014c8f
014c8f
014c8f
014c8f
014c8f
014c8f
014c8f
014c8f
014c8f
014c8f
014c8f
014c8f
014c8f
014c8f
014c8f
014c8f
014c8f
01549e
00c848
00a23b
00391f
fdf54f
fc9b4c
02a24b
0b7b0a
0b2ed6
01d912
fbb2e7
fcaf56
fed70e
ff217b
ff58fd
002d47
01549e
01549e
01549e
01549e
01549e
01549e
01549e
01549e
01549e
01549e
01549e
01549e
01549e
01549e
01549e
01549e
01549e
01549e
01549e
0147a1
00af7a
00b838
0024ad
fdea6e
fca1e3
02b2fe
0b7216
0b49a1
01c81c
fbbc45
fcabb9
fed99e
ff1897
ff514a
0026b7
0147a1
0147a1
0147a1
0147a1
0147a1
0147a1
0147a1
0147a1
0147a1
0147a1
0147a1
0147a1
0147a1
0147a1
0147a1
0147a1
0147a1
0147a1
0147a1
014a63
0094a7
0084fd
005218
fdc034
fc8b6c
02c09a
0b9493
0b3724
01ff72
fb993e
fcbf12
fed228
ff1de3
ff3eef
0016d0
014a63
014a63
014a63
014a63
014a63
014a63
014a63
014a63
014a63
014a63
014a63
014a63
014a63
014a63
014a63
014a63
014a63
014a63
014a63
015537
00986a
006062
000c2e
fdfe2f
fc51cc
02a1f2
0ba726
0b6635
01e636
fbe4c3
fc8f45
feec90
ff13b4
ff4629
fffdc3
015537
015537
015537
015537
015537
015537
015537
015537
015537
015537
015537
015537
015537
015537
015537
015537
015537
015537
015537
01635c
00a51c
0064cb
ffe146
fdac3d
fc9a73
025e66
0b8337
0b7bfb
021d62
fbc730
fce7ca
feb488
ff32a8
ff3a39
00063c
01635c
01635c
01635c
01635c
01635c
01635c
01635c
01635c
01635c
01635c
01635c
01635c
01635c
01635c
01635c
01635c
01635c
01635c
01635c
0178c0
00b477
007292
ffe60f
fd7dac
fc4182
02ad40
0b39e8
0b54fc
023503
fc0311
fcc7b1
ff149b
fef5d8
ff5bd1
fff948
0178c0
0178c0
0178c0
0178c0
0178c0
0178c0
0178c0
0178c0
0178c0
0178c0
0178c0
0178c0
0178c0
0178c0
0178c0
0178c0
0178c0
0178c0
0178c0
0176f7
00cc03
008379
fff53a
fd82f1
fc0e3e
024b57
0b90b6
0b0448
020a14
fc1d15
fd099c
fef145
ff5f9c
ff18df
001e44
0176f7
0176f7
0176f7
0176f7
0176f7
0176f7
0176f7
0176f7
0176f7
0176f7
0176f7
0176f7
0176f7
0176f7
0176f7
0176f7
0176f7
0176f7
0176f7
0172ed
00ca34
009b5b
00065e
fd9253
fc1396
021759
0b2d69
0b5c51
01b83b
fbf18b
fd23fe
ff3420
ff3bc5
ff8424
ffda5f
0172ed
0172ed
0172ed
0172ed
0172ed
0172ed
0172ed
0172ed
0172ed
0172ed
0172ed
0172ed
0172ed
0172ed
0172ed
0172ed
0172ed
0172ed
0172ed
0136de
00c679
0099af
001c69
fda225
fc21c9
021c48
0afd6c
0b00aa
02097d
fba5ff
fcfbce
ff4c7a
ff797a
ff6310
003d61
0136de
0136de
0136de
0136de
0136de
0136de
0136de
0136de
0136de
0136de
0136de
0136de
0136de
0136de
0136de
0136de
0136de
0136de
0136de
00cf12
008e51
009632
001ad9
fdb6c1
fc3094
02298f
0b0209
0ad3cb
01b3ca
fbf1f9
fcb52b
ff26e6
ff903f
ff9cc2
001e73
00cf12
00cf12
00cf12
00cf12
00cf12
00cf12
00cf12
00cf12
00cf12
00cf12
00cf12
00cf12
00cf12
00cf12
00cf12
00cf12
00cf12
00cf12
00cf12
00b541
0039e1
006883
001803
fdb57c
fc4158
023598
0b0cd6
0ad78b
018f49
fbac42
fcf2f9
feed6f
ff71ad
ffaf48
004d62
00b541
00b541
00b541
00b541
00b541
00b541
00b541
00b541
00b541
00b541
00b541
00b541
00b541
00b541
00b541
00b541
00b541
00b541
00b541
00bcf7
0028b7
00305e
fff9a3
fdb399
fc407f
0240be
0b14d6
0adeb9
0191c7
fb93fd
fcc49e
ff1687
ff4b78
ff9af5
0059b2
00bcf7
00bcf7
00bcf7
00bcf7
00bcf7
00bcf7
00bcf7
00bcf7
00bcf7
00bcf7
00bcf7
00bcf7
00bcf7
00bcf7
00bcf7
00bcf7
00bcf7
00bcf7
00bcf7
00b27b
002c3b
00288a
ffe009
fda5bf
fc3fa2
02405b
0b19eb
0ae25f
01950d
fb9520
fcb98d
ff0164
ff5e35
ff8989
00506d
00b27b
00b27b
00b27b
00b27b
00b27b
00b27b
00b27b
00b27b
00b27b
00b27b
00b27b
00b27b
00b27b
00b27b
00b27b
00b27b
00b27b
00b27b
00b27b
00b39f
003021
00273a
ffe2f2
fdaf46
fc44ca
0240ac
0b1a0f
0ae07a
0193b1
fb93e7
fcb920
ff0582
ff6613
ff828e
0056e9
00b39f
00b39f
00b39f
00b39f
00b39f
00b39f
00b39f
00b39f
00b39f
00b39f
00b39f
00b39f
00b39f
00b39f
00b39f
00b39f
00b39f
00b39f
00b39f
009102
003648
003c3c
ffdbe5
fdbef6
fc781b
025c6f
0b1bc8
0ae13f
018980
fb8c96
fcb28f
ff033a
ff7c41
ffacec
003158
009102
009102
009102
009102
009102
009102
009102
009102
009102
009102
009102
009102
009102
009102
009102
009102
009102
009102
009102
00c264
0000b4
0045c2
fffc6b
fdb40c
fc9064
02abdf
0b46c2
0ae3e9
018ab1
fb7ccf
fca73c
fef910
ff78b9
ffcf42
0072ee
00c264
00c264
00c264
00c264
00c264
00c264
00c264
00c264
00c264
00c264
00c264
00c264
00c264
00c264
00c264
00c264
00c264
00c264
00c264
00d927
004716
fff966
0009fe
fde266
fc80d7
02ce7b
0bb7f8
0b2129
018e7e
fb7e82
fc90c0
fee8ec
ff6a3d
ffca39
00a3de
00d927
00d927
00d927
00d927
00d927
00d927
00d927
00d927
00d927
00d927
00d927
00d927
00d927
00d927
00d927
00d927
00d927
00d927
00d927
00e540
006294
004e66
ffadc6
fdf2cb
fcb8d1
02bbb3
0be1c5
0ba9e4
01d877
fb8319
fc92ce
fecdc4
ff56bf
ffb8bb
009dca
00e540
00e540
00e540
00e540
00e540
00e540
00e540
00e540
00e540
00e540
00e540
00e540
00e540
00e540
00e540
00e540
00e540
00e540
00e540
0116d2
006f94
006bf1
00091e
fd8fb2
fcca6f
02f7da
0bcd96
0bd6cf
026b65
fbd296
fc97bd
fecff9
ff3991
ffa3c9
008afe
0116d2
0116d2
0116d2
0116d2
0116d2
0116d2
0116d2
0116d2
0116d2
0116d2
0116d2
0116d2
0116d2
0116d2
0116d2
0116d2
0116d2
0116d2
0116d2
0130d2
00a2d3
007962
0027a8
fdee20
fc63fc
030a11
0c0bc6
0bc1f1
0299d5
fc6a7b
fce9ea
fed512
ff3bd9
ff859e
007556
0130d2
0130d2
0130d2
0130d2
0130d2
0130d2
0130d2
0130d2
0130d2
0130d2
0130d2
0130d2
0130d2
0130d2
0130d2
0130d2
0130d2
0130d2
0130d2
00d1cc
00bd33
00ad5f
00354b
fe0d1b
fcc3c8
02a223
0c1e40
0c0107
0284aa
fc9997
fd8401
ff286f
ff4105
ff87ee
0056bb
00d1cc
00d1cc
00d1cc
00d1cc
00d1cc
00d1cc
00d1cc
00d1cc
00d1cc
00d1cc
00d1cc
00d1cc
00d1cc
00d1cc
00d1cc
00d1cc
00d1cc
00d1cc
00d1cc
00c346
0068fa
00c4bf
00635f
fe1931
fcdf3e
02f70b
0bc222
0c1167
02bc94
fc86d4
fdadc2
ffb102
ff8ae8
ff8c84
0058c8
00c346
00c346
00c346
00c346
00c346
00c346
00c346
00c346
00c346
00c346
00c346
00c346
00c346
00c346
00c346
00c346
00c346
00c346
00c346
00b864
005ce2
007ea1
0076d5
fe3f8d
fce94e
030de7
0c08d1
0bc4b7
02ca36
fcb561
fd9e23
ffd3c5
fffc9b
ffca07
005c99
00b864
00b864
00b864
00b864
00b864
00b864
00b864
00b864
00b864
00b864
00b864
00b864
00b864
00b864
00b864
00b864
00b864
00b864
00b864
009a5b
0054a2
007576
0041af
fe4e4d
fd0661
031587
0c1a25
0bfa4b
029015
fcbfb6
fdc16c
ffc7ee
0016f4
002036
008b39
009a5b
009a5b
009a5b
009a5b
009a5b
009a5b
009a5b
009a5b
009a5b
009a5b
009a5b
009a5b
009a5b
009a5b
009a5b
009a5b
009a5b
009a5b
009a5b
00d07b
004382
0070c2
003c75
fe3000
fd0eca
03261a
0c1e7e
0c042c
02aea0
fc9e92
fdc750
ffdc0b
001034
002f3b
00bc5b
00d07b
00d07b
00d07b
00d07b
00d07b
00d07b
00d07b
00d07b
00d07b
00d07b
00d07b
00d07b
00d07b
00d07b
00d07b
00d07b
00d07b
00d07b
00d07b
00c3b6
005c07
006900
003a53
fe2da2
fd0110
0329e9
0c2600
0c0624
02b319
fcac68
fdb84c
ffdeb6
001950
002c2c
00c329
00c3b6
00c3b6
00c3b6
00c3b6
00c3b6
00c3b6
00c3b6
00c3b6
00c3b6
00c3b6
00c3b6
00c3b6
00c3b6
00c3b6
00c3b6
00c3b6
00c3b6
00c3b6
00c3b6
00c6ab
006161
005eb7
003d93
fe2e86
fd020e
032faa
0c2466
0c02fd
02b245
fcaa87
fdb27e
ffe501
001831
002859
00c471
00c6ab
00c6ab
00c6ab
00c6ab
00c6ab
00c6ab
00c6ab
00c6ab
00c6ab
00c6ab
00c6ab
00c6ab
00c6ab
00c6ab
00c6ab
00c6ab
00c6ab
00c6ab
00c6ab
00dab7
006f00
00775f
000e37
fe3d81
fd062b
03343c
0c3ee8
0bfba1
02a3c3
fca6b8
fda9d9
ffca47
00352f
002331
00b2d7
00dab7
00dab7
00dab7
00dab7
00dab7
00dab7
00dab7
00dab7
00dab7
00dab7
00dab7
00dab7
00dab7
00dab7
00dab7
00dab7
00dab7
00dab7
00dab7
011192
009043
008df9
00371f
fdeeed
fd1f06
033b0f
0c467d
0c279c
02978d
fc8ea7
fda388
ffbbef
0008d7
00534c
00aa49
011192
011192
011192
011192
011192
011192
011192
011192
011192
011192
011192
011192
011192
011192
011192
011192
011192
011192
011192
011dc8
00dadb
00bb34
0055db
fe268e
fcb42d
035cdc
0c4fc5
0c31ec
02d35c
fc7e0c
fd82ce
ffb359
fff556
0016ff
00ebb3
011dc8
011dc8
011dc8
011dc8
011dc8
011dc8
011dc8
011dc8
011dc8
011dc8
011dc8
011dc8
011dc8
011dc8
011dc8
011dc8
011dc8
011dc8
011dc8
013349
00e9ef
011752
008db6
fe4c83
fcf8df
02d8e9
0c7982
0c3d62
02e018
fcc7e7
fd6e4d
ff8af0
ffeabc
fffee9
00a13c
013349
013349
013349
013349
013349
013349
013349
013349
013349
013349
013349
013349
013349
013349
013349
013349
013349
013349
013349
00abf1
01022f
012853
00f596
fe8b7f
fd23ac
03265f
0be4b8
0c6c73
02ed04
fcd643
fdc195
ff73d1
ffbd2a
fff2f4
008613
00abf1
00abf1
00abf1
00abf1
00abf1
00abf1
00abf1
00abf1
00abf1
00abf1
00abf1
00abf1
00abf1
00abf1
00abf1
00abf1
00abf1
00abf1
00abf1
00c2ae
007689
014158
010722
fef6ac
fd64a8
035289
0c34a5
0bd2ee
031d94
fce399
fdd066
ffc9bf
ffa54f
ffc3ef
0079bd
00c2ae
00c2ae
00c2ae
00c2ae
00c2ae
00c2ae
00c2ae
00c2ae
00c2ae
00c2ae
00c2ae
00c2ae
00c2ae
00c2ae
00c2ae
00c2ae
00c2ae
00c2ae
00c2ae
0120ea
008c98
00b9e0
011f68
ff07b1
fdcca1
039194
0c5f7c
0c2077
0288a7
fd12b5
fddd55
ffd81e
fff8ab
ffaccb
004c20
0120ea
0120ea
0120ea
0120ea
0120ea
0120ea
0120ea
0120ea
0120ea
0120ea
0120ea
0120ea
0120ea
0120ea
0120ea
0120ea
0120ea
0120ea
0120ea
00970f
00e819
00cf4b
009bdc
ff1f43
fddd28
03f68a
0c9cb3
0c4a11
02d3f1
fc8218
fe0b14
ffe4ae
0006a0
fffdbe
0035a7
00970f
00970f
00970f
00970f
00970f
00970f
00970f
00970f
00970f
00970f
00970f
00970f
00970f
00970f
00970f
00970f
00970f
00970f
00970f
003c8c
00728e
011d51
00ae1f
feaf18
fdf141
0404a2
0cf2c9
0c7e43
02f76a
fcc24a
fd8fc5
000bb0
001156
0009a4
007aac
003c8c
003c8c
003c8c
003c8c
003c8c
003c8c
003c8c
003c8c
003c8c
003c8c
003c8c
003c8c
003c8c
003c8c
003c8c
003c8c
003c8c
003c8c
003c8c
00494d
002e01
00c44a
00e937
febced
fd9c4d
0413db
0cfd75
0cbf76
031ef2
fcdd27
fdc064
ffae4b
002ee1
0011c0
0083af
00494d
00494d
00494d
00494d
00494d
00494d
00494d
00494d
00494d
00494d
00494d
00494d
00494d
00494d
00494d
00494d
00494d
00494d
00494d
007664
0034e1
009f53
00b936
fedcca
fda3c2
03e60c
0d05aa
0cc537
034219
fcf278
fdcee0
ffc882
fffc86
0021ae
00880e
007664
007664
007664
007664
007664
007664
007664
007664
007664
007664
007664
007664
007664
007664
007664
007664
007664
007664
007664
007752
003809
009fce
00b69f
fed96c
fda5fd
03e691
0d0274
0cc5ca
034280
fcf4ee
fdd05e
ffc985
fffe5c
001e26
00892b
007752
007752
007752
007752
007752
007752
007752
007752
007752
007752
007752
007752
007752
007752
007752
007752
007752
007752
007752
007477
002fe6
008440
00b26b
fef001
fdc351
03d318
0cfde5
0ce1c7
033d7c
fcf169
fdbae2
ffbc7e
fff581
000e20
00a7ef
007477
007477
007477
007477
007477
007477
007477
007477
007477
007477
007477
007477
007477
007477
007477
007477
007477
007477
007477
007f64
0029b8
0072a4
0076c9
fee6e8
fdf431
041292
0cd3c2
0cd7e9
037a0e
fce68e
fdb345
ff8e00
ffd950
fffaf7
008543
007f64
007f64
007f64
007f64
007f64
007f64
007f64
007f64
007f64
007f64
007f64
007f64
007f64
007f64
007f64
007f64
007f64
007f64
007f64
006f7c
003a86
006924
005bb5
fe8b32
fde634
045dbe
0d3562
0c971b
036ae2
fd43b6
fda293
ff824b
ff91cf
ffcf9c
0067cc
006f7c
006f7c
006f7c
006f7c
006f7c
006f7c
006f7c
006f7c
006f7c
006f7c
006f7c
006f7c
006f7c
006f7c
006f7c
006f7c
006f7c
006f7c
006f7c
009326
002582
007f57
004f28
fe676b
fd6d08
044b42
0d98b3
0d1817
031543
fd2fab
fe1da8
ff6c3c
ff8257
ff7124
002e84
009326
009326
009326
009326
009326
009326
009326
009326
009326
009326
009326
009326
009326
009326
009326
009326
009326
009326
009326
00b598
004c7b
006860
00676b
fe59b4
fd45ef
03c6d8
0d8480
0d84a0
03a237
fcd21a
fe07c0
fff2bd
ff6a3c
ff603d
ffc748
00b598
00b598
00b598
00b598
00b598
00b598
00b598
00b598
00b598
00b598
00b598
00b598
00b598
00b598
00b598
00b598
00b598
00b598
00b598
0049a0
006e4e
008ea5
0050de
fe7187
fd3877
03a074
0d0279
0d70cb
040cca
fd5c83
fdabdf
ffdd3b
ffee50
ff4892
ffb6af
0049a0
0049a0
0049a0
0049a0
0049a0
0049a0
0049a0
0049a0
0049a0
0049a0
0049a0
0049a0
0049a0
0049a0
0049a0
0049a0
0049a0
0049a0
0049a0
fffa3e
000593
00af74
0075fd
fe5ba7
fd4f93
039363
0cdd3c
0cf2ab
03f98d
fdc3e4
fe3221
ff841b
ffd973
ffc8af
ff9fb9
fffa3e
fffa3e
fffa3e
fffa3e
fffa3e
fffa3e
fffa3e
fffa3e
fffa3e
fffa3e
fffa3e
fffa3e
fffa3e
fffa3e
fffa3e
fffa3e
fffa3e
fffa3e
fffa3e
ffbf70
ffba5e
004c3a
009512
fe7ed3
fd3ad9
03a948
0cd0db
0ccf63
03820f
fdb1aa
fe9412
00034e
ff8503
ffb4eb
00191a
ffbf70
ffbf70
ffbf70
ffbf70
ffbf70
ffbf70
ffbf70
ffbf70
ffbf70
ffbf70
ffbf70
ffbf70
ffbf70
ffbf70
ffbf70
ffbf70
ffbf70
ffbf70
ffbf70
ff9d8a
ff88e7
000cf6
00419a
fe98f9
fd586f
0397d9
0ce346
0cc4f9
036461
fd4d25
fe84bd
0055b2
fff003
ff6de3
000879
ff9d8a
ff9d8a
ff9d8a
ff9d8a
ff9d8a
ff9d8a
ff9d8a
ff9d8a
ff9d8a
ff9d8a
ff9d8a
ff9d8a
ff9d8a
ff9d8a
ff9d8a
ff9d8a
ff9d8a
ff9d8a
ff9d8a
ff8e22
ff7080
ffe95b
001410
fe5ce4
fd6b41
03ad24
0cd6b9
0cd23a
035ce2
fd37c8
fe3c62
004aa8
002b51
ffbae7
ffd558
ff8e22
ff8e22
ff8e22
ff8e22
ff8e22
ff8e22
ff8e22
ff8e22
ff8e22
ff8e22
ff8e22
ff8e22
ff8e22
ff8e22
ff8e22
ff8e22
ff8e22
ff8e22
ff8e22
ff8e77
ff67ed
ffdbc6
00003f
fe438b
fd49d0
03b79d
0ce293
0ccb3e
036442
fd339c
fe307e
002263
00252c
ffdbe8
000035
ff8e77
ff8e77
ff8e77
ff8e77
ff8e77
ff8e77
ff8e77
ff8e77
ff8e77
ff8e77
ff8e77
ff8e77
ff8e77
ff8e77
ff8e77
ff8e77
ff8e77
ff8e77
ff8e77
ff8508
ff67f6
ffdac6
fffeaa
fe413c
fd46dc
03b3b8
0ce3cb
0ccc9f
036371
fd3477
fe3001
002100
00207b
ffdb30
00040c
ff8508
ff8508
ff8508
ff8508
ff8508
ff8508
ff8508
ff8508
ff8508
ff8508
ff8508
ff8508
ff8508
ff8508
ff8508
ff8508
ff8508
ff8508
ff8508
ff8e59
ffa5b7
ffda85
000533
fe4b96
fd55f8
03c70b
0cfd4a
0cc4a1
035a67
fd39ca
fe2a60
00242e
00298b
fff9e4
0008ba
ff8e59
ff8e59
ff8e59
ff8e59
ff8e59
ff8e59
ff8e59
ff8e59
ff8e59
ff8e59
ff8e59
ff8e59
ff8e59
ff8e59
ff8e59
ff8e59
ff8e59
ff8e59
ff8e59
ff5b83
ffb869
005675
0004b0
fe58b4
fd6ac0
03e55e
0d2413
0cf7cd
034a5e
fd27a6
fe3510
0018e3
002fed
000c15
00465a
ff5b83
ff5b83
ff5b83
ff5b83
ff5b83
ff5b83
ff5b83
ff5b83
ff5b83
ff5b83
ff5b83
ff5b83
ff5b83
ff5b83
ff5b83
ff5b83
ff5b83
ff5b83
ff5b83
ff9e28
ff6ac9
007302
00c1f2
fe57ec
fd7ec8
040519
0d5261
0d3307
039882
fd0f2a
fe195c
002935
001eae
0015d4
006222
ff9e28
ff9e28
ff9e28
ff9e28
ff9e28
ff9e28
ff9e28
ff9e28
ff9e28
ff9e28
ff9e28
ff9e28
ff9e28
ff9e28
ff9e28
ff9e28
ff9e28
ff9e28
ff9e28
ff58ee
ffb9e0
0016e4
00e3d4
ff3884
fd7ddb
041cdf
0d7809
0d69fb
03decb
fd6be4
fdfc4e
000856
00320c
00015d
006db2
ff58ee
ff58ee
ff58ee
ff58ee
ff58ee
ff58ee
ff58ee
ff58ee
ff58ee
ff58ee
ff58ee
ff58ee
ff58ee
ff58ee
ff58ee
ff58ee
ff58ee
ff58ee
ff58ee
ff3c2b
ff6d33
006e7d
007dcd
ff5e0b
fe769c
041bd9
0d925e
0d93b0
041ba8
fdb9bc
fe6302
ffe828
000da3
0016d0
005707
ff3c2b
ff3c2b
ff3c2b
ff3c2b
ff3c2b
ff3c2b
ff3c2b
ff3c2b
ff3c2b
ff3c2b
ff3c2b
ff3c2b
ff3c2b
ff3c2b
ff3c2b
ff3c2b
ff3c2b
ff3c2b
ff3c2b
ff3eba
ff4e52
001c2b
00dbda
fef081
fe9ee7
0526ec
0d9144
0daff5
044870
fdfb15
feb696
00566d
ffeb17
ffefb9
006e0e
ff3eba
ff3eba
ff3eba
ff3eba
ff3eba
ff3eba
ff3eba
ff3eba
ff3eba
ff3eba
ff3eba
ff3eba
ff3eba
ff3eba
ff3eba
ff3eba
ff3eba
ff3eba
ff3eba
ff2e08
ff50fa
fffc1c
008662
ff5226
fe2d2d
0550c1
0ea68d
0daed1
0465ca
fe2993
fefa6e
00ad33
005d93
ffcbda
004578
ff2e08
ff2e08
ff2e08
ff2e08
ff2e08
ff2e08
ff2e08
ff2e08
ff2e08
ff2e08
ff2e08
ff2e08
ff2e08
ff2e08
ff2e08
ff2e08
ff2e08
ff2e08
ff2e08
ffb79c
ff40f1
fffea9
006798
ff0011
fe8af3
04e389
0eceba
0eb91c
0464b1
fe45c3
ff2714
00ee5b
00b0e8
0039cc
002305
ffb79c
ffb79c
ffb79c
ffb79c
ffb79c
ffb79c
ffb79c
ffb79c
ffb79c
ffb79c
ffb79c
ffb79c
ffb79c
ffb79c
ffb79c
ffb79c
ffb79c
ffb79c
ffb79c
ffbd90
ffaf16
fff1d3
0069a3
fee76b
fe493c
052e9d
0e7749
0ed946
0539e3
fe44e2
ff3da5
01121a
00e512
007c84
007b0b
ffbd90
ffbd90
ffbd90
ffbd90
ffbd90
ffbd90
ffbd90
ffbd90
ffbd90
ffbd90
ffbd90
ffbd90
ffbd90
ffbd90
ffbd90
ffbd90
ffbd90
ffbd90
ffbd90
ff6a5f
ffb379
0042ff
00602d
fee8ec
fe3711
04fe2f
0eae9d
0e98d4
055197
fee201
ff3cff
0122bb
00ff6a
00a2f5
00ac36
ff6a5f
ff6a5f
ff6a5f
ff6a5f
ff6a5f
ff6a5f
ff6a5f
ff6a5f
ff6a5f
ff6a5f
ff6a5f
ff6a5f
ff6a5f
ff6a5f
ff6a5f
ff6a5f
ff6a5f
ff6a5f
ff6a5f
ff66e1
ff7a7a
004600
0097ca
fee270
fe3819
04f1bd
0e8d6e
0ebebc
052570
fef23e
ffa8a4
012249
010acf
00b501
00c68c
ff66e1
ff66e1
ff66e1
ff66e1
ff66e1
ff66e1
ff66e1
ff66e1
ff66e1
ff66e1
ff66e1
ff66e1
ff66e1
ff66e1
ff66e1
ff66e1
ff66e1
ff66e1
ff66e1
ff6636
ff78e3
002c13
009928
fefbbc
fe3526
04f235
0e87c4
0eafa4
0536ae
fede28
ffb007
015340
010a9b
00ba2f
00cec1
ff6636
ff6636
ff6636
ff6636
ff6636
ff6636
ff6636
ff6636
ff6636
ff6636
ff6636
ff6636
ff6636
ff6636
ff6636
ff6636
ff6636
ff6636
ff6636
ff61ed
ff7920
002ca5
00a284
fefb3d
fe2c03
04f345
0e8798
0eb1af
053c20
fed7ee
ffb747
015095
00f8ed
00ba41
00cce1
ff61ed
ff61ed
ff61ed
ff61ed
ff61ed
ff61ed
ff61ed
ff61ed
ff61ed
ff61ed
ff61ed
ff61ed
ff61ed
ff61ed
ff61ed
ff61ed
ff61ed
ff61ed
ff61ed
ff6123
ff665d
002db2
00a506
ff2436
fe29d9
04cb49
0e8c40
0eb0f0
054512
feefc8
ff9c06
017052
00ed40
006cdd
00cd32
ff6123
ff6123
ff6123
ff6123
ff6123
ff6123
ff6123
ff6123
ff6123
ff6123
ff6123
ff6123
ff6123
ff6123
ff6123
ff6123
ff6123
ff6123
ff6123
ff6b37
ff6505
000dd4
00a6d0
ff2879
fe6f74
04c79d
0e4854
0eb8da
0543cf
fefefa
ffc48b
014206
01232b
005907
0049ba
ff6b37
ff6b37
ff6b37
ff6b37
ff6b37
ff6b37
ff6b37
ff6b37
ff6b37
ff6b37
ff6b37
ff6b37
ff6b37
ff6b37
ff6b37
ff6b37
ff6b37
ff6b37
ff6b37
ff82c4
ff71da
000c1f
007e3d
ff2ac0
fe74e1
05203b
0e43a7
0e6260
054de2
fefd5f
ffd7e4
01759d
00e839
009dad
003079
ff82c4
ff82c4
ff82c4
ff82c4
ff82c4
ff82c4
ff82c4
ff82c4
ff82c4
ff82c4
ff82c4
ff82c4
ff82c4
ff82c4
ff82c4
ff82c4
ff82c4
ff82c4
ff82c4
ff67d6
ff90a1
001ce5
007c02
fef5bb
fe77db
052753
0eb776
0e5c44
04dcdf
ff0a8a
ffd5ca
018ee6
012ba4
0050a5
008a2f
ff67d6
ff67d6
ff67d6
ff67d6
ff67d6
ff67d6
ff67d6
ff67d6
ff67d6
ff67d6
ff67d6
ff67d6
ff67d6
ff67d6
ff67d6
ff67d6
ff67d6
ff67d6
ff67d6
ff542b
ff71a0
004054
008f51
fef329
fe3ad0
052ac1
0ebfa1
0ee199
04d5d6
fe886e
ffe4f3
018c7b
0148c1
009e44
00317f
ff542b
ff542b
ff542b
ff542b
ff542b
ff542b
ff542b
ff542b
ff542b
ff542b
ff542b
ff542b
ff542b
ff542b
ff542b
ff542b
ff542b
ff542b
ff542b
000416
ff5d0f
001fe8
00b45f
ff075a
fe3820
04eaec
0ec337
0eea23
056142
fe8113
ff5ce6
019c55
01463a
00bcb5
0082a9
000416
000416
000416
000416
000416
000416
000416
000416
000416
000416
000416
000416
000416
000416
000416
000416
000416
000416
000416
ff4707
000676
000c1a
009527
ff2b08
fe4b92
04e856
0e85bf
0eed97
05697b
ff0756
ff55d1
011951
01557e
00ba46
009ffa
ff4707
ff4707
ff4707
ff4707
ff4707
ff4707
ff4707
ff4707
ff4707
ff4707
ff4707
ff4707
ff4707
ff4707
ff4707
ff4707
ff4707
ff4707
ff4707
fffd8c
ff4d8f
00b1c8
0081c8
ff0c7f
fe6e78
04fb5a
0e8337
0eb179
056cdb
ff0f61
ffd920
011263
00d55b
00c934
009d99
fffd8c
fffd8c
fffd8c
fffd8c
fffd8c
fffd8c
fffd8c
fffd8c
fffd8c
fffd8c
fffd8c
fffd8c
fffd8c
fffd8c
fffd8c
fffd8c
fffd8c
fffd8c
fffd8c
001603
ffef29
000e12
011479
fefb58
fe536f
051a40
0e940d
0eaf3b
0537a1
ff125e
ffe03f
0186a6
00cf39
0057c1
00aad1
001603
001603
001603
001603
001603
001603
001603
001603
001603
001603
001603
001603
001603
001603
001603
001603
001603
001603
001603
004c52
00017d
008724
0099d2
ff693f
fe4695
0505ff
0eab33
0ebbd8
0535f3
feea7d
ffe27c
018bfc
012653
005328
0055d1
004c52
004c52
004c52
004c52
004c52
004c52
004c52
004c52
004c52
004c52
004c52
004c52
004c52
004c52
004c52
004c52
004c52
004c52
004c52
00169c
0021c3
009208
00e1c5
ff205b
fe87e4
04fe5c
0e9f29
0ec999
053d72
fee97d
ffcac9
018d50
01297e
0086eb
005316
00169c
00169c
00169c
00169c
00169c
00169c
00169c
00169c
00169c
00169c
00169c
00169c
00169c
00169c
00169c
00169c
00169c
00169c
00169c
001148
0012bd
009b0f
00e4d1
ff347b
fe7380
0510a0
0e9d06
0ec63b
05414b
feeb95
ffca81
0186af
0129dd
0087ce
006190
001148
001148
001148
001148
001148
001148
001148
001148
001148
001148
001148
001148
001148
001148
001148
001148
001148
001148
001148
00142b
0018de
00ac59
00da6d
ff30f9
fe5c55
052817
0e87ff
0ec8b0
05452a
fee727
ffc817
018701
01317e
008760
00608a
00142b
00142b
00142b
00142b
00142b
00142b
00142b
00142b
00142b
00142b
00142b
00142b
00142b
00142b
00142b
00142b
00142b
00142b
00142b
000596
002275
00c0b4
0113d5
ff0e7a
fe50b0
04db2f
0ed5e7
0e82e0
054d53
fef404
ffb962
017efd
01328e
00a0b4
005f1d
000596
000596
000596
000596
000596
000596
000596
000596
000596
000596
000596
000596
000596
000596
000596
000596
000596
000596
000596
005e5b
000bff
00cf7b
013331
ff66ec
fe1b8a
04c93e
0e5f6a
0efae8
04e1c4
ff0096
ffcd34
016855
012635
00a258
008623
005e5b
005e5b
005e5b
005e5b
005e5b
005e5b
005e5b
005e5b
005e5b
005e5b
005e5b
005e5b
005e5b
005e5b
005e5b
005e5b
005e5b
005e5b
005e5b
003dc8
007f5d
00b24a
014665
ff8fad
fe8e7c
04842c
0e4819
0e60ec
057dc1
fe74cf
ffdd8b
018217
0108c3
00924c
008845
003dc8
003dc8
003dc8
003dc8
003dc8
003dc8
003dc8
003dc8
003dc8
003dc8
003dc8
003dc8
003dc8
003dc8
003dc8
003dc8
003dc8
003dc8
003dc8
009ced
005a5f
013550
01253e
ffa57d
febcc6
0506b8
0df9a7
0e4671
04cede
ff25f8
ff3ecb
0194a5
012604
0070db
00760b
009ced
009ced
009ced
009ced
009ced
009ced
009ced
009ced
009ced
009ced
009ced
009ced
009ced
009ced
009ced
009ced
009ced
009ced
009ced
009710
00c5ca
010b8c
01b92c
ff800f
fed566
053afb
0e8d0b
0dede0
04b0f9
fe6085
0006d0
00e16a
013af7
0091e2
00504a
009710
009710
009710
009710
009710
009710
009710
009710
009710
009710
009710
009710
009710
009710
009710
009710
009710
009710
009710
005b35
00bfb7
017ad5
018de7
001950
feae9f
05547e
0ec32f
0e8692
045538
fe418c
ff3a42
01b0a2
008148
00a796
007281
005b35
005b35
005b35
005b35
005b35
005b35
005b35
005b35
005b35
005b35
005b35
005b35
005b35
005b35
005b35
005b35
005b35
005b35
005b35
003f32
0087d7
01752a
01f5ca
fff0ec
ff3daf
05304b
0edb00
0eb91c
04e3c2
fdebe5
ff1d59
00f1ae
0142b8
fffa40
0086c4
003f32
003f32
003f32
003f32
003f32
003f32
003f32
003f32
003f32
003f32
003f32
003f32
003f32
003f32
003f32
003f32
003f32
003f32
003f32
ffed73
006f25
0143e7
01f0cb
004c82
ff1a13
05ae6b
0ebb16
0ece1b
051050
fe698f
fed1d6
00d831
009a60
00a4c9
ffedf4
ffed73
ffed73
ffed73
ffed73
ffed73
ffed73
ffed73
ffed73
ffed73
ffed73
ffed73
ffed73
ffed73
ffed73
ffed73
ffed73
ffed73
ffed73
ffed73
ffb072
002d7f
013012
01c93c
00487e
ff639f
0591d2
0f205f
0eb47a
05212c
fe8d57
ff36c0
009b8d
0085e8
001d98
0076e7
ffb072
ffb072
ffb072
ffb072
ffb072
ffb072
ffb072
ffb072
ffb072
ffb072
ffb072
ffb072
ffb072
ffb072
ffb072
ffb072
ffb072
ffb072
ffb072
ffce70
ffff25
00fe31
01ba2a
002a6f
ff6092
05c9b4
0f0aa4
0f016f
050db3
fe9a26
ff51f0
00e83a
0057d5
000e0a
00102f
ffce70
ffce70
ffce70
ffce70
ffce70
ffce70
ffce70
ffce70
ffce70
ffce70
ffce70
ffce70
ffce70
ffce70
ffce70
ffce70
ffce70
ffce70
ffce70
ffc7f3
000f93
00e4cc
019ed6
00222d
ff501a
05c808
0f2941
0ef587
0537dc
fe8f7b
ff58f4
00f71f
0081d6
fff4cc
0007a9
ffc7f3
ffc7f3
ffc7f3
ffc7f3
ffc7f3
ffc7f3
ffc7f3
ffc7f3
ffc7f3
ffc7f3
ffc7f3
ffc7f3
ffc7f3
ffc7f3
ffc7f3
ffc7f3
ffc7f3
ffc7f3
ffc7f3
ffccbf
000e44
00e81a
0199b9
001cac
ff4e70
05c4b7
0f28ea
0efbb0
053576
fe97f8
ff56ce
00f888
0084d5
fffd41
000294
ffccbf
ffccbf
ffccbf
ffccbf
ffccbf
ffccbf
ffccbf
ffccbf
ffccbf
ffccbf
ffccbf
ffccbf
ffccbf
ffccbf
ffccbf
ffccbf
ffccbf
ffccbf
ffccbf
ffb838
ffff99
00ec17
018f9d
002c4a
ff5f3f
05c9ca
0f330b
0efcb6
0522a0
fe9f4a
ff3cde
00ff17
008083
fff417
ffe8bc
ffb838
ffb838
ffb838
ffb838
ffb838
ffb838
ffb838
ffb838
ffb838
ffb838
ffb838
ffb838
ffb838
ffb838
ffb838
ffb838
ffb838
ffb838
ffb838
ffda7c
ffce9d
00c917
019922
00142a
ff8485
05f1e6
0f3f29
0f14e2
052513
fe7258
ff4e57
00c132
00902b
ffe9c9
ffd2de
ffda7c
ffda7c
ffda7c
ffda7c
ffda7c
ffda7c
ffda7c
ffda7c
ffda7c
ffda7c
ffda7c
ffda7c
ffda7c
ffda7c
ffda7c
ffda7c
ffda7c
ffda7c
ffda7c
ffda7c
000278
007ef7
01642c
002292
ff6003
062a4e
0f7bdc
0f2738
0549a7
fe760d
ff0a53
00dba3
003282
00017b
ffc346
ffda7c
ffda7c
ffda7c
ffda7c
ffda7c
ffda7c
ffda7c
ffda7c
ffda7c
ffda7c
ffda7c
ffda7c
ffda7c
ffda7c
ffda7c
ffda7c
ffda7c
ffda7c
ffda7c
ffd699
000278
00c056
0106ba
ffdfcf
ff722c
05fc49
0fc2f8
0f73bd
0560c4
fea429
ff0f00
0085e6
0053d7
ff8b69
ffe125
ffd699
ffd699
ffd699
ffd699
ffd699
ffd699
ffd699
ffd699
ffd699
ffd699
ffd699
ffd699
ffd699
ffd699
ffd699
ffd699
ffd699
ffd699
ffd699
001f3f
fffe16
00c056
015079
ff7664
ff26da
0610c6
0f8f0d
0fc3f6
05b717
febe3d
ff4305
008b2c
fff31d
ffb103
ff5bf2
001f3f
001f3f
001f3f
001f3f
001f3f
001f3f
001f3f
001f3f
001f3f
001f3f
001f3f
001f3f
001f3f
001f3f
001f3f
001f3f
001f3f
001f3f
001f3f
00510e
004a6b
00bbbb
015079
ffc3e1
feb817
05c1a3
0fa494
0f8d6a
060b61
ff18f1
ff5e6b
00c1d4
fff8a8
ff4b62
ff8374
00510e
00510e
00510e
00510e
00510e
00510e
00510e
00510e
00510e
00510e
00510e
00510e
00510e
00510e
00510e
00510e
00510e
00510e
00510e
006d2d
007a2b
0104e9
014c0f
ffc3e1
ff0260
055773
0f58b6
0fa20e
05d715
ff69c0
ffb55f
00dc18
002d0e
ff50b2
ff2206
006d2d
006d2d
006d2d
006d2d
006d2d
006d2d
006d2d
006d2d
006d2d
006d2d
006d2d
006d2d
006d2d
006d2d
006d2d
006d2d
006d2d
006d2d
006d2d
00c98c
009408
0130d5
018f5d
ffbfd2
ff0260
059bc6
0ef70b
0f5c46
05ea11
ff39a6
ffffb2
012c12
004537
ff80e4
ff26e9
00c98c
00c98c
00c98c
00c98c
00c98c
00c98c
00c98c
00c98c
00c98c
00c98c
00c98c
00c98c
00c98c
00c98c
00c98c
00c98c
00c98c
00c98c
00c98c
0102c6
00e0fe
014662
01b3f5
fff7e6
fefefe
059bc6
0f2ff8
0f0ae6
05afed
ff4977
ffd79e
0169ff
0087da
ff9505
ff4f11
0102c6
0102c6
0102c6
0102c6
0102c6
0102c6
0102c6
0102c6
0102c6
0102c6
0102c6
0102c6
0102c6
0102c6
0102c6
0102c6
0102c6
0102c6
0102c6
010d5b
010a07
017d91
01c369
001223
ff2734
059959
0f2ff8
0f33b8
057593
ff1fc6
ffe2f5
014d42
00b441
ffc4cd
ff5d80
010d5b
010d5b
010d5b
010d5b
010d5b
010d5b
010d5b
010d5b
010d5b
010d5b
010d5b
010d5b
010d5b
010d5b
010d5b
010d5b
010d5b
010d5b
010d5b
00fb89
011037
01958f
01e3ad
001b2c
ff368b
05b0dc
0f2e8d
0f33b8
058d71
fefda8
ffca94
0153e3
00a373
ffdec3
ff7970
00fb89
00fb89
00fb89
00fb89
00fb89
00fb89
00fb89
00fb89
00fb89
00fb89
00fb89
00fb89
00fb89
00fb89
00fb89
00fb89
00fb89
00fb89
00fb89
00f8d8
010d5d
01968c
01e782
002054
ff37fc
05b34f
0f324f
0f337d
058d71
ff0178
ffc520
014ffd
00a482
ffdc13
ff7d96
00f8d8
00f8d8
00f8d8
00f8d8
00f8d8
00f8d8
00f8d8
00f8d8
00f8d8
00f8d8
00f8d8
00f8d8
00f8d8
00f8d8
00f8d8
00f8d8
00f8d8
00f8d8
00f8d8
00de62
011bd3
01a5df
01e22f
000bb1
ff1c3c
05ab89
0f251d
0f1f44
058ea9
ff0178
ffb099
016d54
00b978
ffd65e
ff8c08
00de62
00de62
00de62
00de62
00de62
00de62
00de62
00de62
00de62
00de62
00de62
00de62
00de62
00de62
00de62
00de62
00de62
00de62
00de62
011c4d
00ee08
01bee6
01fcb4
00027b
fef885
057b82
0f17aa
0f086d
056baa
ff0394
ffb099
0149cd
00ec3f
fffaa5
ff8229
011c4d
011c4d
011c4d
011c4d
011c4d
011c4d
011c4d
011c4d
011c4d
011c4d
011c4d
011c4d
011c4d
011c4d
011c4d
011c4d
011c4d
011c4d
011c4d
011db0
01492c
017b7f
02218c
002984
feeaf6
0546f0
0ed0f8
0ef4a1
054a0c
fed011
ffb3b4
0149cd
00b7f4
004563
ffb790
011db0
011db0
011db0
011db0
011db0
011db0
011db0
011db0
011db0
011db0
011db0
011db0
011db0
011db0
011db0
011db0
011db0
011db0
011db0
01972b
014ab3
01dffa
01d73d
005222
ff15ff
0537fe
0e9704
0ea6b1
053439
feab02
ff7aea
014d39
00b7f4
000bbc
0009f6
01972b
01972b
01972b
01972b
01972b
01972b
01972b
01972b
01972b
01972b
01972b
01972b
01972b
01972b
01972b
01972b
01972b
01972b
01972b
014b1f
01dbf1
01e1ce
024f5f
fff94b
ff468f
056b72
0e8525
0e6167
04d70b
fe90ea
ff4e9b
010953
00bc0c
000bbc
ffc509
014b1f
014b1f
014b1f
014b1f
014b1f
014b1f
014b1f
014b1f
014b1f
014b1f
014b1f
014b1f
014b1f
014b1f
014b1f
014b1f
014b1f
014b1f
014b1f
0102bc
018639
028584
02516e
0080b3
fee26c
05a22e
0ebf24
0e4d43
0488f2
fe27e3
ff3132
00d762
006f84
001059
ffc509
0102bc
0102bc
0102bc
0102bc
0102bc
0102bc
0102bc
0102bc
0102bc
0102bc
0102bc
0102bc
0102bc
0102bc
0102bc
0102bc
0102bc
0102bc
0102bc
0102a4
013d88
022f70
02f5d3
0082c4
ff6a65
053da0
0ef61b
0e8780
0474b8
fdd976
fec7ba
00b9d9
003d5e
ffc37f
ffc9ab
0102a4
0102a4
0102a4
0102a4
0102a4
0102a4
0102a4
0102a4
0102a4
0102a4
0102a4
0102a4
0102a4
0102a4
0102a4
0102a4
0102a4
0102a4
0102a4
01081a
013d72
01ed14
02a73f
0118d7
ff6c48
05b9c1
0e9a4f
0eb9ad
04a9e3
fdc6ff
fe8022
005991
002268
ff95b7
ff8383
01081a
01081a
01081a
01081a
01081a
01081a
01081a
01081a
01081a
01081a
01081a
01081a
01081a
01081a
01081a
01081a
01081a
01081a
01081a
01a0a1
0141cb
01ed02
027262
00da3d
ffe3d6
05bb42
0efd32
0e708c
04d1dc
fdf15a
fe716c
002088
ffd5b4
ff803c
ff5f0a
01a0a1
01a0a1
01a0a1
01a0a1
01a0a1
01a0a1
01a0a1
01a0a1
01a0a1
01a0a1
01a0a1
01a0a1
01a0a1
01a0a1
01a0a1
01a0a1
01a0a1
01a0a1
01a0a1
018317
01c030
01f09c
027253
00ae6e
ffaff6
061e54
0efe71
0ec27d
049543
fe127a
fe9485
001457
ffa671
ff40ad
ff4d3d
018317
018317
018317
018317
018317
018317
018317
018317
018317
018317
018317
018317
018317
018317
018317
018317
018317
018317
018317
01bb0a
01b15b
02300f
027422
00ae66
ff99f8
060449
0f302c
0ec31d
04be65
fdf40e
fea525
0025f5
ffa052
ff28f3
ff2d55
01bb0a
01bb0a
01bb0a
01bb0a
01bb0a
01bb0a
01bb0a
01bb0a
01bb0a
01bb0a
01bb0a
01bb0a
01bb0a
01bb0a
01bb0a
01bb0a
01bb0a
01bb0a
01bb0a
01a9b9
01a0fd
023465
026192
00adde
ff99fa
060ab7
0f37c9
0eb490
04be36
fde805
feae0a
002117
ff9b2a
ff2abd
ff3445
01a9b9
01a9b9
01a9b9
01a9b9
01a9b9
01a9b9
01a9b9
01a9b9
01a9b9
01a9b9
01a9b9
01a9b9
01a9b9
01a9b9
01a9b9
01a9b9
01a9b9
01a9b9
01a9b9
01abfd
015f13
01f616
027215
006735
ff97f6
060abe
0f5045
0ed18f
0486d4
fde752
fe803b
0042f6
ff88a5
ff171e
ff3b15
01abfd
01abfd
01abfd
01abfd
01abfd
01abfd
01abfd
01abfd
01abfd
01abfd
01abfd
01abfd
01abfd
01abfd
01abfd
01abfd
01abfd
01abfd
01abfd
017b6d
016329
017f56
0201d3
0084f4
ff18a9
06071c
0f5053
0efdad
04bb12
fd838a
fe7ef9
fff06e
ffc5ac
fef5c1
ff17bb
017b6d
017b6d
017b6d
017b6d
017b6d
017b6d
017b6d
017b6d
017b6d
017b6d
017b6d
017b6d
017b6d
017b6d
017b6d
017b6d
017b6d
017b6d
017b6d
01964f
01252c
01848d
016a40
fff5ab
ff3ea2
05649f
0f4bb0
0efdbf
04f362
fdc639
fdff9c
ffeed3
ff5c54
ff43a7
feed25
01964f
01964f
01964f
01964f
01964f
01964f
01964f
01964f
01964f
01964f
01964f
01964f
01964f
01964f
01964f
01964f
01964f
01964f
01964f
01c83f
014386
013e91
017023
ff4a8b
fe9cdd
058f7d
0e943e
0ef883
04f376
fe05cc
fe4ae5
ff5f09
ff5a84
feccb8
ff4517
01c83f
01c83f
01c83f
01c83f
01c83f
01c83f
01c83f
01c83f
01c83f
01c83f
01c83f
01c83f
01c83f
01c83f
01c83f
01c83f
01c83f
01c83f
01c83f
020942
0176d5
015dc0
01283c
ff5098
fded0b
04e949
0ec049
0e3c09
04ee15
fe05e1
fe8c37
ffac62
fec6c8
fecadb
fecae5
020942
020942
020942
020942
020942
020942
020942
020942
020942
020942
020942
020942
020942
020942
020942
020942
020942
020942
020942
01cd47
01c142
01987d
014bef
fefe48
fdf3f8
042002
0e0204
0e6e75
041650
fdffb9
fe8c4f
fff729
ff1f54
fe21bb
fec8c3
01cd47
01cd47
01cd47
01cd47
01cd47
01cd47
01cd47
01cd47
01cd47
01cd47
01cd47
01cd47
01cd47
01cd47
01cd47
01cd47
01cd47
01cd47
01cd47
01f1db
0188fe
01de4e
018309
ff1fc5
fda6c1
042681
0d4535
0dbbf9
04459d
fd3551
fe8688
fff73f
ff6579
fe74cb
fe2a1c
01f1db
01f1db
01f1db
01f1db
01f1db
01f1db
01f1db
01f1db
01f1db
01f1db
01f1db
01f1db
01f1db
01f1db
01f1db
01f1db
01f1db
01f1db
01f1db
01f9f8
01ad3e
01a68a
01c83b
ff5661
fdc7f1
03d9fa
0d4ba5
0d00d9
0394b9
fd6432
fdbdef
fff186
ff658f
feba50
fe7c6f
01f9f8
01f9f8
01f9f8
01f9f8
01f9f8
01f9f8
01f9f8
01f9f8
01f9f8
01f9f8
01f9f8
01f9f8
01f9f8
01f9f8
01f9f8
01f9f8
01f9f8
01f9f8
01f9f8
022b97
01b348
01c188
019eb5
ff89e7
fdf09a
03f2b0
0d12aa
0d05a4
030963
fce07b
fde0d7
ff5c28
ff614c
feba60
feb032
022b97
022b97
022b97
022b97
022b97
022b97
022b97
022b97
022b97
022b97
022b97
022b97
022b97
022b97
022b97
022b97
022b97
022b97
022b97
024129
01d484
01c594
01b0c9
ff6e18
fe131b
040deb
0d2337
0cdf7a
030c99
fc8329
fd88a0
ff7388
fefd42
feb785
feb03d
024129
024129
024129
024129
024129
024129
024129
024129
024129
024129
024129
024129
024129
024129
024129
024129
024129
024129
024129
02516d
01de3a
01d48b
01b29b
ff763c
fe0695
041d74
0d2f7a
0ce6ed
02fb69
fc849b
fd5e9a
ff4bcf
ff07c8
fe8a79
feaef4
02516d
02516d
02516d
02516d
02516d
02516d
02516d
02516d
02516d
02516d
02516d
02516d
02516d
02516d
02516d
02516d
02516d
02516d
02516d
0250f0
01e185
01d682
01b5a3
ff769a
fe083b
041aea
0d32a0
0ce969
02fceb
fc811f
fd5ee5
ff434a
feffbb
fe8c9b
fea5d2
0250f0
0250f0
0250f0
0250f0
0250f0
0250f0
0250f0
0250f0
0250f0
0250f0
0250f0
0250f0
0250f0
0250f0
0250f0
0250f0
0250f0
0250f0
0250f0
0251cb
01e24a
01d144
01b282
ff71c7
fe07a4
04184a
0d36a8
0ce467
02f8f7
fc7eb8
fd646e
ff42d2
ff0d44
fe9966
fea26d
0251cb
0251cb
0251cb
0251cb
0251cb
0251cb
0251cb
0251cb
0251cb
0251cb
0251cb
0251cb
0251cb
0251cb
0251cb
0251cb
0251cb
0251cb
0251cb
023248
01e6e4
01d564
01966e
ff6103
fdedcf
041524
0d289b
0cfa03
02de25
fc698d
fd5790
ff607a
ff0ac4
fee1ec
fee6fc
023248
023248
023248
023248
023248
023248
023248
023248
023248
023248
023248
023248
023248
023248
023248
023248
023248
023248
023248
026998
01cca4
01d939
0199dd
ff49a0
fddfd8
03ff9f
0d25fc
0cee4e
02f025
fc5336
fd45ee
ff55c2
ff2378
fedfd7
ff2365
026998
026998
026998
026998
026998
026998
026998
026998
026998
026998
026998
026998
026998
026998
026998
026998
026998
026998
026998
027945
020e9f
01b9e9
019e6f
ff4db9
fdc3f2
03eef6
0d0c51
0ceb2d
02e22e
fc68af
fd2b48
ff40ba
ff16af
fefd4f
ff20ea
027945
027945
027945
027945
027945
027945
027945
027945
027945
027945
027945
027945
027945
027945
027945
027945
027945
027945
027945
02a90e
022199
0209c7
017888
ff5342
fdc8e8
03cd31
0cf827
0ccc1b
02de65
fc57c8
fd4546
ff2078
fefd3a
feedd6
ff4496
02a90e
02a90e
02a90e
02a90e
02a90e
02a90e
02a90e
02a90e
02a90e
02a90e
02a90e
02a90e
02a90e
02a90e
02a90e
02a90e
02a90e
02a90e
02a90e
02ba9b
025be2
0220ec
01d9f2
ff2508
fdcfa8
03d33e
0ccef7
0cb383
02b880
fc532a
fd30a9
ff402c
fed5e2
fecec9
ff31b7
02ba9b
02ba9b
02ba9b
02ba9b
02ba9b
02ba9b
02ba9b
02ba9b
02ba9b
02ba9b
02ba9b
02ba9b
02ba9b
02ba9b
02ba9b
02ba9b
02ba9b
02ba9b
02ba9b
029267
02739a
026faf
01f93a
ffa8ac
fd9130
03dc5e
0cd725
0c7bdb
029744
fc1ff5
fd2a6c
ff2451
ff00ba
fe999e
ff07c1
029267
029267
029267
029267
029267
029267
029267
029267
029267
029267
029267
029267
029267
029267
029267
029267
029267
029267
029267
0255a9
0243e4
028bd5
0256b2
ffcdcb
fe2d68
03923d
0ce1f9
0c8590
025538
fbf884
fceda7
ff1cea
fedfac
fecc75
fec8a9
0255a9
0255a9
0255a9
0255a9
0255a9
0255a9
0255a9
0255a9
0255a9
0255a9
0255a9
0255a9
0255a9
0255a9
0255a9
0255a9
0255a9
0255a9
0255a9
029a43
020c15
025ffe
02708f
0023ac
fe4f83
0421c6
0c9ddc
0c8f83
025e23
fbbbd4
fcc96a
fee514
fed8df
feae16
fef760
029a43
029a43
029a43
029a43
029a43
029a43
029a43
029a43
029a43
029a43
029a43
029a43
029a43
029a43
029a43
029a43
029a43
029a43
029a43
02b654
02488a
022ecf
0249ed
003a77
fe9b32
043fd5
0d1c5b
0c537c
0266e7
fbc3b0
fc93ef
fec524
fea7aa
fea818
fedc9c
02b654
02b654
02b654
02b654
02b654
02b654
02b654
02b654
02b654
02b654
02b654
02b654
02b654
02b654
02b654
02b654
02b654
02b654
02b654
02aeea
026208
0265ba
021d3f
00175f
feafe7
048495
0d37a9
0cc664
023060
fbcba7
fc9b12
fe948f
fe8aa7
fe7b65
fed72a
02aeea
02aeea
02aeea
02aeea
02aeea
02aeea
02aeea
02aeea
02aeea
02aeea
02aeea
02aeea
02aeea
02aeea
02aeea
02aeea
02aeea
02aeea
02aeea
02bb1c
025c4e
02796b
0247aa
fff4dd
fe94cc
049493
0d6cc3
0cdb7b
028921
fba189
fca139
fe9a12
fe6521
fe64fc
feb4a4
02bb1c
02bb1c
02bb1c
02bb1c
02bb1c
02bb1c
02bb1c
02bb1c
02bb1c
02bb1c
02bb1c
02bb1c
02bb1c
02bb1c
02bb1c
02bb1c
02bb1c
02bb1c
02bb1c
02b266
0264ba
027576
025544
001229
fe7cf6
0481da
0d77cf
0d0028
0297b2
fbded6
fc8422
fe9e51
fe68f0
fe4b11
fea529
02b266
02b266
02b266
02b266
02b266
02b266
02b266
02b266
02b266
02b266
02b266
02b266
02b266
02b266
02b266
02b266
02b266
02b266
02b266
02acb3
02606d
02799e
025350
0018de
fe8b6a
047617
0d6e92
0d059b
02a9ca
fbe605
fca260
fe8ff6
fe6b08
fe4cf2
fe985f
02acb3
02acb3
02acb3
02acb3
02acb3
02acb3
02acb3
02acb3
02acb3
02acb3
02acb3
02acb3
02acb3
02acb3
02acb3
02acb3
02acb3
02acb3
02acb3
02a2e5
0264a3
027ccc
02503c
001a4f
fe8672
046b64
0d7745
0d0c70
02a5c1
fbd8a0
fc9d0e
fe7994
fe75a6
fe4b64
fe96fa
02a2e5
02a2e5
02a2e5
02a2e5
02a2e5
02a2e5
02a2e5
02a2e5
02a2e5
02a2e5
02a2e5
02a2e5
02a2e5
02a2e5
02a2e5
02a2e5
02a2e5
02a2e5
02a2e5
029dc0
02499a
02886b
025901
0011d3
fe8a6d
045db1
0d59c4
0d246f
02b89a
fbcd80
fc781f
fe6ae8
fe37eb
fe68ae
fe92b2
029dc0
029dc0
029dc0
029dc0
029dc0
029dc0
029dc0
029dc0
029dc0
029dc0
029dc0
029dc0
029dc0
029dc0
029dc0
029dc0
029dc0
029dc0
029dc0
021bb3
023ed0
024fb1
027165
00243a
fe789f
04660b
0d3d06
0ce686
02eaf6
fbf50e
fc60c7
fe1d68
fe1923
fde727
fed028
021bb3
021bb3
021bb3
021bb3
021bb3
021bb3
021bb3
021bb3
021bb3
021bb3
021bb3
021bb3
021bb3
021bb3
021bb3
021bb3
021bb3
021bb3
021bb3
026462
01b77e
024477
02365e
003d9b
fe8bc5
045384
0d45b7
0cc89e
02aa8b
fc2974
fc89f0
fe051e
fdc87f
fdc720
fe4960
026462
026462
026462
026462
026462
026462
026462
026462
026462
026462
026462
026462
026462
026462
026462
026462
026462
026462
026462
0230ea
02152c
01960c
0227e5
fff186
feac7b
046c33
0d2dd6
0cd3d2
0283ff
fbd66c
fccd7a
fe3a2b
fda931
fd5f2f
fe2018
0230ea
0230ea
0230ea
0230ea
0230ea
0230ea
0230ea
0230ea
0230ea
0230ea
0230ea
0230ea
0230ea
0230ea
0230ea
0230ea
0230ea
0230ea
0230ea
01c03c
01da48
02013d
016053
ffe0f7
fe556d
0491a1
0d4a14
0cb880
0290d0
fbaa51
fc6e79
fe8773
fde5e5
fd3b5d
fda92a
01c03c
01c03c
01c03c
01c03c
01c03c
01c03c
01c03c
01c03c
01c03c
01c03c
01c03c
01c03c
01c03c
01c03c
01c03c
01c03c
01c03c
01c03c
01c03c
01a7f6
016742
01c520
01cdbf
ff153f
fe4486
0438c4
0d7049
0cd554
0274ed
fbb766
fc4174
fe2678
fe34c8
fd7954
fd8499
01a7f6
01a7f6
01a7f6
01a7f6
01a7f6
01a7f6
01a7f6
01a7f6
01a7f6
01a7f6
01a7f6
01a7f6
01a7f6
01a7f6
01a7f6
01a7f6
01a7f6
01a7f6
01a7f6
0126b7
015047
015839
0194d5
ff7cd9
fd83a4
0428c3
0d1c26
0cf980
029039
fb9cfe
fc4dd7
fdfbd8
fdd8f6
fdc405
fdbf44
0126b7
0126b7
0126b7
0126b7
0126b7
0126b7
0126b7
0126b7
0126b7
0126b7
0126b7
0126b7
0126b7
0126b7
0126b7
0126b7
0126b7
0126b7
0126b7
01254d
00ef88
014705
014350
ff523e
fdd131
039861
0d102b
0cba85
02ab4d
fbb16c
fc3a13
fe051e
fdb90d
fd7f49
fdf72d
01254d
01254d
01254d
01254d
01254d
01254d
01254d
01254d
01254d
01254d
01254d
01254d
01254d
01254d
01254d
01254d
01254d
01254d
01254d
010e0e
00eeaa
010bc8
0138c7
ff2054
fdb71b
03c7dc
0cb7c3
0cb32f
0284bd
fbc200
fc4695
fdf904
fdbeba
fd6bbf
fdcd17
010e0e
010e0e
010e0e
010e0e
010e0e
010e0e
010e0e
010e0e
010e0e
010e0e
010e0e
010e0e
010e0e
010e0e
010e0e
010e0e
010e0e
010e0e
010e0e
0134e7
00e4a9
010b68
011f4a
ff1bcb
fda1a0
03bca2
0ccc31
0c8d25
028195
fbb168
fc4db7
fdfe66
fdb985
fd6e30
fdc4af
0134e7
0134e7
0134e7
0134e7
0134e7
0134e7
0134e7
0134e7
0134e7
0134e7
0134e7
0134e7
0134e7
0134e7
0134e7
0134e7
0134e7
0134e7
0134e7
0129ae
00cf32
0110ee
011f7e
ff29df
fda420
03c87f
0cd264
0c81db
029698
fbb326
fc56e1
fdfa75
fdb68b
fd7110
fdc355
0129ae
0129ae
0129ae
0129ae
0129ae
0129ae
0129ae
0129ae
0129ae
0129ae
0129ae
0129ae
0129ae
0129ae
0129ae
0129ae
0129ae
0129ae
0129ae
016e73
00afd6
00d4f2
012eef
ff2a72
fdcb79
03cf7e
0cf38c
0c932f
02770c
fbede0
fc5bc0
fe1412
fdab87
fd68c0
fdcb5e
016e73
016e73
016e73
016e73
016e73
016e73
016e73
016e73
016e73
016e73
016e73
016e73
016e73
016e73
016e73
016e73
016e73
016e73
016e73
0156f5
0134c2
009857
00bb00
ff484a
fdcc95
041b8c
0d0111
0cd345
02988a
fbb0e8
fccd41
fe1d7c
fddd09
fd5376
fdbb4d
0156f5
0156f5
0156f5
0156f5
0156f5
0156f5
0156f5
0156f5
0156f5
0156f5
0156f5
0156f5
0156f5
0156f5
0156f5
0156f5
0156f5
0156f5
0156f5
01bd62
01146e
014f42
006799
fea8c0
fdf5a7
041d13
0d69bb
0ce5e1
02f0bb
fbdeff
fc795a
feb9af
fde9fe
fd9798
fd9e01
01bd62
01bd62
01bd62
01bd62
01bd62
01bd62
01bd62
01bd62
01bd62
01bd62
01bd62
01bd62
01bd62
01bd62
01bd62
01bd62
01bd62
01bd62
01bd62
01d498
0193a7
01271a
014acc
fe4129
fd2f7e
045017
0d6ba1
0d67e1
0307d8
fc4c89
fcb299
fe5179
feac01
fda7b0
fdf2a1
01d498
01d498
01d498
01d498
01d498
01d498
01d498
01d498
01d498
01d498
01d498
01d498
01d498
01d498
01d498
01d498
01d498
01d498
01d498
01c46f
01acbe
01b09d
011f65
ff36bd
fcbf86
0379e8
0da2c5
0d69ee
03945c
fc6584
fd28ff
fe8f59
fe3b5d
fe7964
fe0406
01c46f
01c46f
01c46f
01c46f
01c46f
01c46f
01c46f
01c46f
01c46f
01c46f
01c46f
01c46f
01c46f
01c46f
01c46f
01c46f
01c46f
01c46f
01c46f
017507
019b4a
01cbb5
01b3e3
ff07df
fdc8b5
030100
0cbb7c
0da579
039693
fcfd3f
fd43f9
ff0f33
fe7e2e
fdffc2
fee678
017507
017507
017507
017507
017507
017507
017507
017507
017507
017507
017507
017507
017507
017507
017507
017507
017507
017507
017507
018f86
0152bc
01bbc3
01cca4
ff8f8c
fd9de2
03f34d
0c4d03
0cd225
03ccfb
fcff45
fdce9d
ff27d9
fef300
fe3ccf
fe7755
018f86
018f86
018f86
018f86
018f86
018f86
018f86
018f86
018f86
018f86
018f86
018f86
018f86
018f86
018f86
018f86
018f86
018f86
018f86
00e7f7
016fc2
016c49
01bb2c
ffaaaa
fe3281
03c464
0d566d
0c5922
02e57e
fd3add
fdd0d5
ffbfb7
ff0e00
febcc6
feba35
00e7f7
00e7f7
00e7f7
00e7f7
00e7f7
00e7f7
00e7f7
00e7f7
00e7f7
00e7f7
00e7f7
00e7f7
00e7f7
00e7f7
00e7f7
00e7f7
00e7f7
00e7f7
00e7f7
011469
00de17
018585
017614
ff9b7a
fe4a14
044599
0d2da5
0d3fe0
027c4a
fc719e
fe04a4
ffc1a4
ff9207
fed43f
ff2974
011469
011469
011469
011469
011469
011469
011469
011469
011469
011469
011469
011469
011469
011469
011469
011469
011469
011469
011469
00fc03
0101ee
01100e
018a6d
ff63c2
fe3dd5
04589c
0d95d6
0d1efd
03365c
fc1cc8
fd625b
ffeb6b
ff9395
ff3eb6
ff3c62
00fc03
00fc03
00fc03
00fc03
00fc03
00fc03
00fc03
00fc03
00fc03
00fc03
00fc03
00fc03
00fc03
00fc03
00fc03
00fc03
00fc03
00fc03
00fc03
00d787
00eff5
012a74
0133e6
ff72bf
fe14ca
044f97
0da3d7
0d6bbc
031e23
fca5d7
fd23dd
ff73e1
ffb25b
ff3fdb
ff8ace
00d787
00d787
00d787
00d787
00d787
00d787
00d787
00d787
00d787
00d787
00d787
00d787
00d787
00d787
00d787
00d787
00d787
00d787
00d787
00d4ba
00da19
011faf
0143b7
ff3ee8
fe1dc4
043700
0d9e6f
0d741f
034c1e
fc9753
fd75fa
ff4e70
ff6abc
ff524b
ff8b7d
00d4ba
00d4ba
00d4ba
00d4ba
00d4ba
00d4ba
00d4ba
00d4ba
00d4ba
00d4ba
00d4ba
00d4ba
00d4ba
00d4ba
00d4ba
00d4ba
00d4ba
00d4ba
00d4ba
00cba2
00d938
0118d2
014056
ff43de
fe0d7f
0439d1
0d96b7
0d726c
034ec0
fca5c1
fd716c
ff6834
ff5efc
ff3bd1
ff9146
00cba2
00cba2
00cba2
00cba2
00cba2
00cba2
00cba2
00cba2
00cba2
00cba2
00cba2
00cba2
00cba2
00cba2
00cba2
00cba2
00cba2
00cba2
00cba2
00cf8f
00e3ed
0119da
01486a
ff47d8
fe07a6
044cfa
0d9365
0d7b82
0350bf
fca2a7
fd606c
ff6d91
ff40a1
ff49a7
ffabbf
00cf8f
00cf8f
00cf8f
00cf8f
00cf8f
00cf8f
00cf8f
00cf8f
00cf8f
00cf8f
00cf8f
00cf8f
00cf8f
00cf8f
00cf8f
00cf8f
00cf8f
00cf8f
00cf8f
00b3f7
00ef4b
0138d7
014b68
ff5f3a
fe132a
043c0e
0dcada
0d71e6
036b0d
fca86e
fd5772
ff3c5f
ff5027
fef1cc
ffd3cc
00b3f7
00b3f7
00b3f7
00b3f7
00b3f7
00b3f7
00b3f7
00b3f7
00b3f7
00b3f7
00b3f7
00b3f7
00b3f7
00b3f7
00b3f7
00b3f7
00b3f7
00b3f7
00b3f7
0047bb
00c048
014c35
018036
ff6453
fe3b02
044fae
0dae04
0dd065
035aae
fcd540
fd614b
ff2d13
fefc54
ff0c40
ff3e1b
0047bb
0047bb
0047bb
0047bb
0047bb
0047bb
0047bb
0047bb
0047bb
0047bb
0047bb
0047bb
0047bb
0047bb
0047bb
0047bb
0047bb
0047bb
0047bb
00d391
003870
011134
019885
ffa69a
fe4168
0481b0
0dc6a6
0dac34
03d148
fcc0b4
fd998c
ff396f
fee921
fea30b
ff5f4f
00d391
00d391
00d391
00d391
00d391
00d391
00d391
00d391
00d391
00d391
00d391
00d391
00d391
00d391
00d391
00d391
00d391
00d391
00d391
009fb4
00d7d9
007658
015541
ffc251
fe8cf5
0488fc
0dffa8
0dc848
03a807
fd47e8
fd821f
ff7990
fef738
fe8d28
fee761
009fb4
009fb4
009fb4
009fb4
009fb4
009fb4
009fb4
009fb4
009fb4
009fb4
009fb4
009fb4
009fb4
009fb4
009fb4
009fb4
009fb4
009fb4
009fb4
00a971
009ed5
01259a
00ab00
ff785e
feab6d
04dc0c
0e07ad
0e06f5
03c6e6
fd1a8d
fe16c4
ff5fcf
ff3db9
fe9ca6
fecf51
00a971
00a971
00a971
00a971
00a971
00a971
00a971
00a971
00a971
00a971
00a971
00a971
00a971
00a971
00a971
00a971
00a971
00a971
00a971
00de29
00a880
00ecff
0158ff
fecf57
fe6202
04fa4c
0e5a24
0e0eec
040520
fd3933
fde9bc
fff362
ff2428
fee2a5
fedeb2
00de29
00de29
00de29
00de29
00de29
00de29
00de29
00de29
00de29
00de29
00de29
00de29
00de29
00de29
00de29
00de29
00de29
00de29
00de29
00e7ce
00d857
00f5c5
0125a1
ff6d3b
fdc89f
04b7ac
0e7597
0e59c1
040c5a
fd71aa
fe058c
ffca85
ffaa12
fecb71
ff1e37
00e7ce
00e7ce
00e7ce
00e7ce
00e7ce
00e7ce
00e7ce
00e7ce
00e7ce
00e7ce
00e7ce
00e7ce
00e7ce
00e7ce
00e7ce
00e7ce
00e7ce
00e7ce
00e7ce
00a626
00e093
011ea1
012d1f
ff415b
fe4f7a
0434aa
0e3cb0
0e7133
044c44
fd77d6
fe35c6
ffe246
ff872b
ff3dd2
ff0a66
00a626
00a626
00a626
00a626
00a626
00a626
00a626
00a626
00a626
00a626
00a626
00a626
00a626
00a626
00a626
00a626
00a626
00a626
00a626
008b41
00ac8f
012527
014d7e
ff474a
fe2cb7
049f81
0dd4e5
0e441e
045ed7
fdaa79
fe3aaa
00087b
ff99fd
ff222b
ff6504
008b41
008b41
008b41
008b41
008b41
008b41
008b41
008b41
008b41
008b41
008b41
008b41
008b41
008b41
008b41
008b41
008b41
008b41
008b41
008698
009b20
010370
0151b8
ff5c45
fe3090
0488f9
0e1a25
0e00d8
04419e
fdb683
fe5b7c
000ba6
ffb2c1
ff2e5d
ff5318
008698
008698
008698
008698
008698
008698
008698
008698
008698
008698
008698
008698
008698
008698
008698
008698
008698
008698
008698
009ade
009969
00fd06
014550
ff5dd3
fe3848
048a63
0e11da
0e1a53
0428dc
fdabc2
fe5fea
0017b9
ffb3eb
ff377a
ff5795
009ade
009ade
009ade
009ade
009ade
009ade
009ade
009ade
009ade
009ade
009ade
009ade
009ade
009ade
009ade
009ade
009ade
009ade
009ade
00a0ee
008efd
00fde7
01489b
ff6433
fe377b
04866b
0e111f
0e1e95
041bc3
fdb87a
fe6570
001572
ffadb5
ff36e0
ff52e5
00a0ee
00a0ee
00a0ee
00a0ee
00a0ee
00a0ee
00a0ee
00a0ee
00a0ee
00a0ee
00a0ee
00a0ee
00a0ee
00a0ee
00a0ee
00a0ee
00a0ee
00a0ee
00a0ee
00885d
00a9ef
00cf9b
014c84
ff72d7
fe53cd
0482dd
0dff7e
0e1b59
042eb0
fd7e4b
fe9df4
002dfe
ffa397
ff1b4c
ff503b
00885d
00885d
00885d
00885d
00885d
00885d
00885d
00885d
00885d
00885d
00885d
00885d
00885d
00885d
00885d
00885d
00885d
00885d
00885d
007897
0081d3
00fb9b
0100ec
ff793a
fe6bb5
04b11c
0df9b0
0dfe90
042968
fd9d32
fe3ef5
008a45
ffcbab
ff0ac7
ff2334
007897
007897
007897
007897
007897
007897
007897
007897
007897
007897
007897
007897
007897
007897
007897
007897
007897
007897
007897
0088f1
006c3f
00c4be
013d1c
ff11d3
fe7472
04d1d0
0e38f2
0df6a0
040208
fd95f9
fe693a
000853
0049e6
ff419b
ff0c9c
0088f1
0088f1
0088f1
0088f1
0088f1
0088f1
0088f1
0088f1
0088f1
0088f1
0088f1
0088f1
0088f1
0088f1
0088f1
0088f1
0088f1
0088f1
0088f1
00def5
007f47
00aba1
00fd41
ff57e0
fdfc18
04dbfc
0e5f03
0e4041
03f8ca
fd6825
fe60d2
003986
ffb2a7
ffd487
ff4c6c
00def5
00def5
00def5
00def5
00def5
00def5
00def5
00def5
00def5
00def5
00def5
00def5
00def5
00def5
00def5
00def5
00def5
00def5
00def5
00f6f2
00d880
00bf5f
00e334
ff15a3
fe44c2
045f25
0e6990
0e67bd
04452a
fd5e8f
fe3149
0030ce
ffe5b0
ff37a4
ffe4d3
00f6f2
00f6f2
00f6f2
00f6f2
00f6f2
00f6f2
00f6f2
00f6f2
00f6f2
00f6f2
00f6f2
00f6f2
00f6f2
00f6f2
00f6f2
00f6f2
00f6f2
00f6f2
00f6f2
00fe12
00efd6
01162c
00f669
fefc4b
fe0451
04a5d6
0df01d
0e7200
046b94
fda8dc
fe27f6
00028f
ffdd34
ff694a
ff4c33
00fe12
00fe12
00fe12
00fe12
00fe12
00fe12
00fe12
00fe12
00fe12
00fe12
00fe12
00fe12
00fe12
00fe12
00fe12
00fe12
00fe12
00fe12
00fe12
016d56
00f668
012bb0
014672
ff0e00
fdecf3
046a6b
0e314b
0e0205
04750b
fdcc47
fe6c78
fff9f6
ffb290
ff6178
ff79fa
016d56
016d56
016d56
016d56
016d56
016d56
016d56
016d56
016d56
016d56
016d56
016d56
016d56
016d56
016d56
016d56
016d56
016d56
016d56
0160a9
015752
013169
015930
ff53b6
fdfc5f
045610
0dfd8a
0e3acb
041381
fdd485
fe8b51
0035a2
ffab13
ff3c54
ff732a
0160a9
0160a9
0160a9
0160a9
0160a9
0160a9
0160a9
0160a9
0160a9
0160a9
0160a9
0160a9
0160a9
0160a9
0160a9
0160a9
0160a9
0160a9
0160a9
018a9a
014d85
017c5c
015d9d
ff6234
fe3248
0461fd
0dedcc
0e12c5
043f68
fd8917
fe91b1
004d7d
ffd938
ff3689
ff5671
018a9a
018a9a
018a9a
018a9a
018a9a
018a9a
018a9a
018a9a
018a9a
018a9a
018a9a
018a9a
018a9a
018a9a
018a9a
018a9a
018a9a
018a9a
018a9a
018de6
016a41
0175a5
0190f5
ff653c
fe3c35
0486eb
0df5f8
0e07fc
0423fd
fda72b
fe5e04
0051db
ffe990
ff5626
ff5279
018de6
018de6
018de6
018de6
018de6
018de6
018de6
018de6
018de6
018de6
018de6
018de6
018de6
018de6
018de6
018de6
018de6
018de6
018de6
01875a
016c17
0185a8
018d37
ff81d9
fe3de5
048c73
0e0a8d
0e0c89
041dfa
fd97e3
fe6ec7
00350e
ffebff
ff5f41
ff6417
01875a
01875a
01875a
01875a
01875a
01875a
01875a
01875a
01875a
01875a
01875a
01875a
01875a
01875a
01875a
01875a
01875a
01875a
01875a
01825c
016df1
018522
0188ad
ff82e8
fe35ca
048bf8
0e08fb
0e06b4
041caf
fd9996
fe731a
00304e
fff427
ff5e90
ff6182
01825c
01825c
01825c
01825c
01825c
01825c
01825c
01825c
01825c
01825c
01825c
01825c
01825c
01825c
01825c
01825c
01825c
01825c
01825c
017a86
01555c
018e44
01861c
ff6c8f
fe3b02
04640a
0e069f
0dfefb
03fff6
fd933b
fe7b7c
0045a0
ffdcc2
ff86bf
ff5e1c
017a86
017a86
017a86
017a86
017a86
017a86
017a86
017a86
017a86
017a86
017a86
017a86
017a86
017a86
017a86
017a86
017a86
017a86
017a86
01897f
014905
01678f
01947e
ff6885
fe17d2
046c42
0dc7bf
0dfb44
03f3cd
fd6601
fe717a
0052d4
fffe54
ff61ea
ff9d62
01897f
01897f
01897f
01897f
01897f
01897f
01897f
01897f
01897f
01897f
01897f
01897f
01897f
01897f
01897f
01897f
01897f
01897f
01897f
0115bd
015f15
015561
015b73
ff7db7
fe11de
043867
0dd3dc
0d9e9d
03ee54
fd5416
fe2ed4
004414
0011c9
ff9363
ff671b
0115bd
0115bd
0115bd
0115bd
0115bd
0115bd
0115bd
0115bd
0115bd
0115bd
0115bd
0115bd
0115bd
0115bd
0115bd
0115bd
0115bd
0115bd
0115bd
015f8d
00dc41
016e51
0146e7
ff3d40
fe29d2
0431ad
0d9942
0dac4d
03859d
fd4de6
fe1a93
fff8c2
00011e
ffa960
ff9f04
015f8d
015f8d
015f8d
015f8d
015f8d
015f8d
015f8d
015f8d
015f8d
015f8d
015f8d
015f8d
015f8d
015f8d
015f8d
015f8d
015f8d
015f8d
015f8d
0204e7
0122e7
00f119
015ec5
ff2995
fdec1e
04489a
0d92d2
0d7436
0392b7
fce9ac
fe14a7
ffe560
ffb906
ff996c
ffb410
0204e7
0204e7
0204e7
0204e7
0204e7
0204e7
0204e7
0204e7
0204e7
0204e7
0204e7
0204e7
0204e7
0204e7
0204e7
0204e7
0204e7
0204e7
0204e7
024344
01c082
013470
00e76b
ff4055
fdd95f
040dca
0da8ac
0d6e13
035d40
fcf629
fdb51f
ffdfbb
ffa68c
ff54b5
ffa4db
024344
024344
024344
024344
024344
024344
024344
024344
024344
024344
024344
024344
024344
024344
024344
024344
024344
024344
024344
022e1f
0200bb
01d6be
012cc4
fec56c
fdf0cc
03fa7c
0d6c1b
0d8494
0356ee
fcbf1a
fdc1fb
ff7d5b
ffa0bc
ff41ae
ff5e18
022e1f
022e1f
022e1f
022e1f
022e1f
022e1f
022e1f
022e1f
022e1f
022e1f
022e1f
022e1f
022e1f
022e1f
022e1f
022e1f
022e1f
022e1f
022e1f
02483d
01ed7c
021134
01c083
ff048c
fd80e9
040fcf
0d5a88
0d4d72
036b6a
fcb959
fd8fdc
ff8910
ff472e
ff3c63
ff4cc6
02483d
02483d
02483d
02483d
02483d
02483d
02483d
02483d
02483d
02483d
02483d
02483d
02483d
02483d
02483d
02483d
02483d
02483d
02483d
020c87
02062f
01ff00
01f7cd
ff9046
fdbc9c
03a5ff
0d6eb3
0d3cd3
033746
fcccb9
fd8a6b
ff59aa
ff5240
fee7b2
ff47c5
020c87
020c87
020c87
020c87
020c87
020c87
020c87
020c87
020c87
020c87
020c87
020c87
020c87
020c87
020c87
020c87
020c87
020c87
020c87
024ba5
01e35c
020d68
01ed2f
ffb085
fe0e1a
03c8d0
0d30fc
0d4896
032d94
fcae50
fd95b7
ff567e
ff369b
feee27
ff1660
024ba5
024ba5
024ba5
024ba5
024ba5
024ba5
024ba5
024ba5
024ba5
024ba5
024ba5
024ba5
024ba5
024ba5
024ba5
024ba5
024ba5
024ba5
024ba5
025b5e
0202bf
01fc16
01f458
ffab3d
fe1e23
03f156
0d424c
0d29e6
03336d
fca97e
fd8697
ff5c1c
ff3507
fee068
ff1996
025b5e
025b5e
025b5e
025b5e
025b5e
025b5e
025b5e
025b5e
025b5e
025b5e
025b5e
025b5e
025b5e
025b5e
025b5e
025b5e
025b5e
025b5e
025b5e
025846
01ff0c
01f4b4
01f86a
ffa98d
fe1f60
03ed90
0d38c5
0d25d3
033aa3
fca81d
fd87b9
ff5faa
ff33b4
fee0c6
ff1cd1
025846
025846
025846
025846
025846
025846
025846
025846
025846
025846
025846
025846
025846
025846
025846
025846
025846
025846
025846
0262b3
01f5ad
01e981
01e210
ffb5e1
fe1a46
03f152
0d2d59
0d08f7
032e4e
fcbdf7
fd838e
ff6318
ff3e78
fedcc5
ff1df0
0262b3
0262b3
0262b3
0262b3
0262b3
0262b3
0262b3
0262b3
0262b3
0262b3
0262b3
0262b3
0262b3
0262b3
0262b3
0262b3
0262b3
0262b3
0262b3
025899
021154
01d0a6
01c45d
ff7a98
fe3afb
03e3ca
0d3751
0ceaad
02e1c3
fc9d42
fdbd84
ff580b
ff4792
fef954
ff1352
025899
025899
025899
025899
025899
025899
025899
025899
025899
025899
025899
025899
025899
025899
025899
025899
025899
025899
025899
027181
02030d
01f7ba
01a13e
ff50a0
fde734
041202
0d2432
0cf8c3
02b6f6
fc3118
fd8f4d
ffa9f3
ff37f4
ff0631
ff3bae
027181
027181
027181
027181
027181
027181
027181
027181
027181
027181
027181
027181
027181
027181
027181
027181
027181
027181
027181
028151
021f65
01e77b
01cdb7
ff28a8
fdb772
03b2ac
0d58cb
0ce300
02c6fe
fc0063
fd1436
ff755b
ff9529
fef46c
ff4a51
028151
028151
028151
028151
028151
028151
028151
028151
028151
028151
028151
028151
028151
028151
028151
028151
028151
028151
028151
029fe8
02301c
020571
01bc8b
ff57aa
fd8d33
038031
0cf405
0d1a98
02affe
fc1155
fce0ba
fef340
ff5d91
ff56f2
ff3789
029fe8
029fe8
029fe8
029fe8
029fe8
029fe8
029fe8
029fe8
029fe8
029fe8
029fe8
029fe8
029fe8
029fe8
029fe8
029fe8
029fe8
029fe8
029fe8
02d68a
024e78
021608
01da48
ff469f
fdbbda
035643
0cc1ea
0cb694
02e72c
fbfa81
fcf18b
fec027
fedc6f
ff1fc5
ff9952
02d68a
02d68a
02d68a
02d68a
02d68a
02d68a
02d68a
02d68a
02d68a
02d68a
02d68a
02d68a
02d68a
02d68a
02d68a
02d68a
02d68a
02d68a
02d68a
0301eb
027f6e
02313e
01e926
ff6146
fdac94
038013
0c9c56
0c89ac
028d89
fc2bf5
fcdd15
fecf3a
feaea3
feac0a
ff67df
0301eb
0301eb
0301eb
0301eb
0301eb
0301eb
0301eb
0301eb
0301eb
0301eb
0301eb
0301eb
0301eb
0301eb
0301eb
0301eb
0301eb
0301eb
0301eb
030c1f
02ab9a
026319
0204db
ff706a
fdc7b7
037085
0cc6e9
0c6368
025fd0
fbd0af
fd0f70
feba65
febdfc
fe7d68
fef207
030c1f
030c1f
030c1f
030c1f
030c1f
030c1f
030c1f
030c1f
030c1f
030c1f
030c1f
030c1f
030c1f
030c1f
030c1f
030c1f
030c1f
030c1f
030c1f
0345f7
02b2c0
02820a
0227c7
ff83d2
fdd252
038387
0cbc04
0c813b
024502
fbb0a8
fccf81
feddaa
feaf64
fe8828
fed15d
0345f7
0345f7
0345f7
0345f7
0345f7
0345f7
0345f7
0345f7
0345f7
0345f7
0345f7
0345f7
0345f7
0345f7
0345f7
0345f7
0345f7
0345f7
0345f7
0330d8
02edcf
028956
02475e
ffa77a
fde623
038e5b
0ccf6c
0c761b
026375
fb954a
fcaecd
fe9c63
fed367
fe7941
fedc57
0330d8
0330d8
0330d8
0330d8
0330d8
0330d8
0330d8
0330d8
0330d8
0330d8
0330d8
0330d8
0330d8
0330d8
0330d8
0330d8
0330d8
0330d8
0330d8
0333c8
02dea9
02b3b0
024c99
ffbe22
fdffb5
039c91
0cd730
0c8406
025b7b
fbab20
fc9b2c
fe84ef
fea496
fe9314
fed1a7
0333c8
0333c8
0333c8
0333c8
0333c8
0333c8
0333c8
0333c8
0333c8
0333c8
0333c8
0333c8
0333c8
0333c8
0333c8
0333c8
0333c8
0333c8
0333c8
032522
02e121
02a6f5
027032
ffc288
fe12bf
03b20f
0ce321
0c8a8d
02672d
fba46b
fcad86
fe7470
fe90e0
fe6bbb
fee75c
032522
032522
032522
032522
032522
032522
032522
032522
032522
032522
032522
032522
032522
032522
032522
032522
032522
032522
032522
0322a8
02dab6
02a809
026a9e
ffd21e
fe14ac
03ba65
0cec8a
0c8fc8
026a08
fba98a
fcaa96
fe7c79
fe89a6
fe6319
fed621
0322a8
0322a8
0322a8
0322a8
0322a8
0322a8
0322a8
0322a8
0322a8
0322a8
0322a8
0322a8
0322a8
0322a8
0322a8
0322a8
0322a8
0322a8
0322a8
03219f
02da25
02a692
026add
ffd0d8
fe1838
03bad5
0cee70
0c91ec
026b38
fbaa30
fcabc0
fe7bcd
fe8b7a
fe6173
fed429
03219f
03219f
03219f
03219f
03219f
03219f
03219f
03219f
03219f
03219f
03219f
03219f
03219f
03219f
03219f
03219f
03219f
03219f
03219f
03004b
02e53f
02aca0
027a92
ffce31
fe25de
0394a8
0ce9b8
0c7d80
02542b
fb9d60
fca4c0
fe6f41
fe92aa
fe4dc4
fee5d9
03004b
03004b
03004b
03004b
03004b
03004b
03004b
03004b
03004b
03004b
03004b
03004b
03004b
03004b
03004b
03004b
03004b
03004b
03004b
02d265
02a288
02c2db
0286b1
ffeda3
fe2090
03affb
0c9d4c
0c740e
022b4a
fb6f3c
fc8b1b
fe613d
fe798c
fe5c28
febe72
02d265
02d265
02d265
02d265
02d265
02d265
02d265
02d265
02d265
02d265
02d265
02d265
02d265
02d265
02d265
02d265
02d265
02d265
02d265
02b715
026430
02683c
02a4e3
fffe1a
fe4b46
03a8c6
0cc26a
0c0c40
021e76
fb37b5
fc4c6f
fe3e68
fe6683
fe3a0a
fed1fe
02b715
02b715
02b715
02b715
02b715
02b715
02b715
02b715
02b715
02b715
02b715
02b715
02b715
02b715
02b715
02b715
02b715
02b715
02b715
02be61
02466c
02244c
024224
001f02
fe5d37
03d751
0cba90
0c34b2
01ad58
fb29ba
fc0fed
fdfa1d
fe408e
fe254c
feacd1
02be61
02be61
02be61
02be61
02be61
02be61
02be61
02be61
02be61
02be61
02be61
02be61
02be61
02be61
02be61
02be61
02be61
02be61
02be61
0304e4
024d45
02085e
020263
ffc258
fe7c18
03e827
0ce63d
0c2d53
01d34d
fabf94
fc02ce
fdc155
fe0078
fe01ae
fe995a
0304e4
0304e4
0304e4
0304e4
0304e4
0304e4
0304e4
0304e4
0304e4
0304e4
0304e4
0304e4
0304e4
0304e4
0304e4
0304e4
0304e4
0304e4
0304e4
02f1dd
02974d
